node {
  name: "global_step/Initializer/zeros"
  op: "Const"
  attr {
    key: "_class"
    value {
      list {
        s: "loc:@global_step"
      }
    }
  }
  attr {
    key: "_output_shapes"
    value {
      list {
        shape {
        }
      }
    }
  }
  attr {
    key: "dtype"
    value {
      type: DT_INT64
    }
  }
  attr {
    key: "value"
    value {
      tensor {
        dtype: DT_INT64
        tensor_shape {
        }
        int64_val: 0
      }
    }
  }
}
node {
  name: "global_step"
  op: "VariableV2"
  attr {
    key: "_class"
    value {
      list {
        s: "loc:@global_step"
      }
    }
  }
  attr {
    key: "_output_shapes"
    value {
      list {
        shape {
        }
      }
    }
  }
  attr {
    key: "container"
    value {
      s: ""
    }
  }
  attr {
    key: "dtype"
    value {
      type: DT_INT64
    }
  }
  attr {
    key: "shape"
    value {
      shape {
      }
    }
  }
  attr {
    key: "shared_name"
    value {
      s: ""
    }
  }
}
node {
  name: "global_step/Assign"
  op: "Assign"
  input: "global_step"
  input: "global_step/Initializer/zeros"
  attr {
    key: "T"
    value {
      type: DT_INT64
    }
  }
  attr {
    key: "_class"
    value {
      list {
        s: "loc:@global_step"
      }
    }
  }
  attr {
    key: "_output_shapes"
    value {
      list {
        shape {
        }
      }
    }
  }
  attr {
    key: "use_locking"
    value {
      b: true
    }
  }
  attr {
    key: "validate_shape"
    value {
      b: true
    }
  }
}
node {
  name: "global_step/read"
  op: "Identity"
  input: "global_step"
  attr {
    key: "T"
    value {
      type: DT_INT64
    }
  }
  attr {
    key: "_class"
    value {
      list {
        s: "loc:@global_step"
      }
    }
  }
  attr {
    key: "_output_shapes"
    value {
      list {
        shape {
        }
      }
    }
  }
}
node {
  name: "global_step/IsVariableInitialized"
  op: "IsVariableInitialized"
  input: "global_step"
  attr {
    key: "_class"
    value {
      list {
        s: "loc:@global_step"
      }
    }
  }
  attr {
    key: "_output_shapes"
    value {
      list {
        shape {
        }
      }
    }
  }
  attr {
    key: "dtype"
    value {
      type: DT_INT64
    }
  }
}
node {
  name: "global_step/cond/Switch"
  op: "Switch"
  input: "global_step/IsVariableInitialized"
  input: "global_step/IsVariableInitialized"
  attr {
    key: "T"
    value {
      type: DT_BOOL
    }
  }
  attr {
    key: "_output_shapes"
    value {
      list {
        shape {
        }
        shape {
        }
      }
    }
  }
}
node {
  name: "global_step/cond/switch_t"
  op: "Identity"
  input: "global_step/cond/Switch:1"
  attr {
    key: "T"
    value {
      type: DT_BOOL
    }
  }
  attr {
    key: "_output_shapes"
    value {
      list {
        shape {
        }
      }
    }
  }
}
node {
  name: "global_step/cond/switch_f"
  op: "Identity"
  input: "global_step/cond/Switch"
  attr {
    key: "T"
    value {
      type: DT_BOOL
    }
  }
  attr {
    key: "_output_shapes"
    value {
      list {
        shape {
        }
      }
    }
  }
}
node {
  name: "global_step/cond/pred_id"
  op: "Identity"
  input: "global_step/IsVariableInitialized"
  attr {
    key: "T"
    value {
      type: DT_BOOL
    }
  }
  attr {
    key: "_output_shapes"
    value {
      list {
        shape {
        }
      }
    }
  }
}
node {
  name: "global_step/cond/read"
  op: "Identity"
  input: "global_step/cond/read/Switch:1"
  attr {
    key: "T"
    value {
      type: DT_INT64
    }
  }
  attr {
    key: "_output_shapes"
    value {
      list {
        shape {
        }
      }
    }
  }
}
node {
  name: "global_step/cond/read/Switch"
  op: "RefSwitch"
  input: "global_step"
  input: "global_step/cond/pred_id"
  attr {
    key: "T"
    value {
      type: DT_INT64
    }
  }
  attr {
    key: "_class"
    value {
      list {
        s: "loc:@global_step"
      }
    }
  }
  attr {
    key: "_output_shapes"
    value {
      list {
        shape {
        }
        shape {
        }
      }
    }
  }
}
node {
  name: "global_step/cond/Switch_1"
  op: "Switch"
  input: "global_step/Initializer/zeros"
  input: "global_step/cond/pred_id"
  attr {
    key: "T"
    value {
      type: DT_INT64
    }
  }
  attr {
    key: "_class"
    value {
      list {
        s: "loc:@global_step"
      }
    }
  }
  attr {
    key: "_output_shapes"
    value {
      list {
        shape {
        }
        shape {
        }
      }
    }
  }
}
node {
  name: "global_step/cond/Merge"
  op: "Merge"
  input: "global_step/cond/Switch_1"
  input: "global_step/cond/read"
  attr {
    key: "N"
    value {
      i: 2
    }
  }
  attr {
    key: "T"
    value {
      type: DT_INT64
    }
  }
  attr {
    key: "_output_shapes"
    value {
      list {
        shape {
        }
        shape {
        }
      }
    }
  }
}
node {
  name: "global_step/add/y"
  op: "Const"
  attr {
    key: "_output_shapes"
    value {
      list {
        shape {
        }
      }
    }
  }
  attr {
    key: "dtype"
    value {
      type: DT_INT64
    }
  }
  attr {
    key: "value"
    value {
      tensor {
        dtype: DT_INT64
        tensor_shape {
        }
        int64_val: 0
      }
    }
  }
}
node {
  name: "global_step/add"
  op: "Add"
  input: "global_step/cond/Merge"
  input: "global_step/add/y"
  attr {
    key: "T"
    value {
      type: DT_INT64
    }
  }
  attr {
    key: "_output_shapes"
    value {
      list {
        shape {
        }
      }
    }
  }
}
node {
  name: "tensors/component_0"
  op: "Const"
  device: "/device:CPU:0"
  attr {
    key: "_output_shapes"
    value {
      list {
        shape {
          dim {
            size: 3567
          }
        }
      }
    }
  }
  attr {
    key: "dtype"
    value {
      type: DT_DOUBLE
    }
  }
  attr {
    key: "value"
    value {
      tensor {
        dtype: DT_DOUBLE
        tensor_shape {
          dim {
            size: 3567
          }
        }
        tensor_content: "s\225L \265\341\314?\343{\213\366\224\366\314?\002\350\346\321C#\315?\353\002\223X\250.\315?a\006\344\304\267-\315?4*\255\025&9\315?\364\303\027\014\377@\315?\363Re\243iL\315?\305l9\377\305_\315?\321\034uN\225j\315?\2608g\007\006W\315?F\021\\)\'A\315?%\002)?\026S\315?i\027\236Z\'5\315?<\2501\022\273%\315?\276\243\226K\202.\315?^\035\327\361%5\315?}>\251z\"\035\315?s\300<\321f\366\314?\301N\206\352\263\361\314?\343\221;\026\"\372\314?\200\033\035\350\205\341\314?\262\260\027r\273\303\314?\343\240\301\374\316\234\314?zz\261\237\341g\314?\213W\223\206\236=\314?c\202\r\224\2035\314?c\251+(\327\027\314?zMLmb\356\313?\016]g{\250\270\313?\344S\024pN\263\313?=\330\270\267\210\223\313?\304_\230\356\243\212\313?P]\366t@\225\313?h\337\005\337n\250\313?\267\355\362\342\001\273\313?:\016\344\"\274\322\313?\317|\307#\312\364\313?\322\231I\016\267\007\314?\\\344C\365{\007\314?{mkH2$\314?z\320|f\3729\314?\000\331w\207\014R\314?/\351\314\226\334\203\314?~\303\271\220\213\315\314?/b:\325\243\356\314?\203\244.\235\377\354\314?\301(\030\000p\315\314?\217&\247\016\243t\314?O\024\305\004e5\314?\317\261\363\236\031\360\313?\244\210N\307J\251\313?[\331}Hqn\313?\203)\031\354\305\021\313?E\267J\357\234\337\312?T\017\003#P\271\312?1\223;{M\240\312?NZ\365\017\333\203\312?\300\206T\017\240x\312?)F\211\242\257\274\312?%\303\202\337\254\337\312?\327l\371\t\346\266\312?\374y\263\0037\235\312?O\214\275\373\t\305\312?x\037\267\307!\016\313?\246\024{5.\006\313?\355\203;6S\370\312?%\254#\315s\322\312?\227T\325\0326\t\313?>\305I\030\010-\313?[\344\350;\tv\313?\234\373C\344\010\232\313?pj\363A\307\265\313?t\202a\271\330\306\313?\245\335>d\367\310\313?L\225\251\373`\326\313?\317\324?\026\017\340\313?\014\t\374\007\257\342\313?\224\305I\326\353\332\313?c*\213/\313\270\313?\263\301}u9\213\313?\225\367\253\337\320\304\313?\231\216W%3\314\313?\323p\362\244J\251\313?[A\221\366X\235\313?\232\334vAG\242\313?j\334\211\374t\250\313?\320_/\347.\226\313?\322\265\013\332\237\234\313?:\360\365\253\274\201\313?\376Up\r\246\200\313?\315\235)\014{\256\313?_\376\354B\321\316\313?\013\374\2120\243\352\313?I\336\224M\024\374\313?\206p_\026\371\006\314?\250\023$Df\037\314?\306\342\004\224\360>\314?Q\253\'t\020T\314?K\2778I\327r\314?\373\365\306\355\360\207\314?\355\327\315\'S\216\314?\352\240\321q\303\234\314?\2242\312\257\366\242\314?/v:\021v\252\314?\303(\371\362\261\244\314?\222\250\357\263\314\215\314?\336\310\346\361N\232\314?\243\213{cp\243\314?\372\027\006\0019\256\314?,\243\373\263\313\251\314?\366\000\326\335N\270\314?\332\213\335H\035\300\314?|$<\331\201\276\314?\267\340\n\375S\267\314?\273e\364\224\266\247\314?\230Q;\342\341\224\314?\246\237\271L\"\202\314?V\032\245\t\343\200\314?\005\244\266:$h\314?|X\235\014\366u\314?\372\366q\336F]\314?\240\225XrED\314?N\016\346I\256/\314?}t\224\312\256\020\314?\023\367\365\317\025\335\313?\010\347\203\000A\302\313?e/\030\262s\200\313?\264\232\270\231-\200\313?\246\230\033\275.\204\313?6\344\273n\363\201\313?)\316\230\034S\204\313?\356t$\355\377\211\313?5 \rjiu\313?\"\271\263\261=s\313?\345\027[\221cn\313?L\242\320ERq\313?\372J{\336\350~\313?z\203\360\347bs\313?\003\353\022\267\005i\313?u\223\321.\312_\313?!\230\335ry\\\313?\n]\364\333\370O\313?\305\3766\264\226<\313?\177\330\017\007\302;\313?\027L\277\356\273<\313?\303\353~>_-\313?\362\245\001\3151*\313?6\006\322\002\n.\313?\263G\255\322\013.\313?\263\023D.O\037\313?A\020/n\364\010\313?\354\344K)a\006\313?%\263\022\244f\020\313?\354t\217\210\003\n\313?\371\243\267^$\013\313?\rh\337\230B\000\313?\251@\252\204\316\373\312?\366\362a\024\t\010\313?\336\320\364\017\253\n\313?\225q\257s\243\355\312?\225Z_\214\227\332\312?\201\302\020\241`\362\312?|\274\346\016\310\t\313?-\241*\302\'\377\312?\251\344\246J\267\014\313?(\003\230\026\033\021\313?\027:\273$\352\037\313?\027\334:\370\2744\313?\255H\027^\3631\313?\312{\327\313\257\031\313?\336o\313\177\3740\313?(\330.V\2346\313?\214 07a@\313?\035$\365\262\256P\313?\007\214\370\305\332\\\313?\350\357E~t_\313?\2720\002\305\360Z\313?~\351\212\245\212Z\313?\273\254\342\275\005:\313?\216\232\373 \3254\313?\003\3570b\2512\313?,}\241\255n(\313?N[\017\236\212\r\313?\323:\247\342\221\373\312?7\277\025\024\374\362\312?\334\333\360e\351\335\312?\3021u\236K\315\312?\363\337\213Hw\304\312?|&\027=\231\272\312?*\2105 8\252\312?X;\260:w\235\312?\336\2204\"\222\215\312?}.ZM\305p\312?\024Me&Xi\312?K\340\355y\262f\312?n8a\377\313n\312?X\363\201\274\325u\312?\0011\270\317\362\210\312?\356\272\211\352E\236\312?&y\224\233\277\301\312?\034\342n\374\310\356\312?\345*\372i\372\361\312?\003\213\335\355c\r\313?\266V#\327\'\"\313?\035Ok\235/+\313?jU\374\363\365;\313?\317&\001\026kK\313?3l\013\004>U\313?\237\013\203/\325W\313?h\247|\216\343U\313?&\230\355\347m\\\313?\323=\326\177\342o\313?\303\024\226\214$\200\313?z\270\2677\314\213\313?=\372\277 r\205\313?\314\356\267\340\206\204\313?s\315\267\032\346\177\313?$L\220\222\3206\313?ES\202m\340(\313?\205+\310\030\035%\313?\355?\220\216;\375\312?\306\327\253\203\024\340\312?[\313\302\251\237\317\312?\353\323}Bn\255\312?\216<\013\240\352\240\312?+>\006w\334z\312?\024.#v\037\340\312?\377&\237\024i\377\312?Q\302\201\315\2178\313?\274\246Q\222\277E\313?\333\366\221\351=F\313?_\227\322\024\260F\313?\013>\337\254G5\313?&\327\354\377\036\'\313?\341\331\341Y\311!\313?HZ\3746\\\025\313?HV<\375\271\013\313?\027\342w$u\372\312?q\026\3134g\353\312?\n\231\233\327\'\354\312?\017\322\232\271\234\337\312?\270\243\300\201\027\335\312?!<\271*y\312\312?\367\366j$b\272\312?\036\266\222\365R\263\312?\247\327\354\234\364\253\312?\272b\033\370\036\234\312?\316\362\2737&\216\312?\217\336\345,0\207\312?P^\311-dp\312?F\277\365\342=g\312?j\252\371\272\244[\312?\225,\013L\305K\312?\305\023\315Et\366\311?j4!\374w\274\311?\322\001\300\346Y\237\311?\034\215\343\212\002\262\311?`\377k\374f\273\311?^|\246\236\322\257\311?hBB}\223\262\311?\377\333\3072F\251\311?\367\267M\266V{\311?\242B\376dOl\311?\017\004\366\010\235f\311?\227\325\331h\267X\311?\217\027\322\341!L\311?\302|5\344\370Q\311?\325\1771\266k\235\311?L\305\313uH\341\311?\201\347\324Q\262\365\311?\216Z\311\335\323\024\312?2\352>&p0\312?\271\375\260\255\270[\312?\200kp \371\212\312?o\310\350{k\262\312?\305\035\031\362\242\313\312?M\317\276i/\337\312?e\227)_0\365\312?i\017X\222l\020\313?\304;w\275_E\313?^\273\027\014l]\313?\234oj\276Ow\313?\307\224)\225\331h\313?\213\037\344np\237\313?\241X\372\022\"\307\313?\nn/_\032\343\313?\016\353(/{\027\314?\200C\013}n0\314?\221\345s\332\222V\314?\233\315\030#h\205\314?*%sHD\232\314?sM\213>B\264\314?$\322\231(\000\316\314?\333a\305\tI\357\314?\344*\334\023\240\375\314?\013\014\347\207\002\027\315?\375\237\363\265\217\036\315?\201\030\014\241\217!\315?\371\352\243\206H#\315?\212[\201\370+*\315?\2464?W\213*\315?\021\304\213\033=\022\315?\350\242\216\177\200\344\314?\305S\200\t\213\263\314?\254\234\300\353h\231\314?\217\235\'\006\227z\314?\314\032\231\240\266h\314?q\372\357\313\335J\314?\026\326t\332\246\372\313?rBS<O\270\313?\007\177\006n\271\207\313?R\314\305\010vv\313?x\274fE\026a\313?\007K|\273\023V\313?S\003\315\347\334-\313?\032\230V\357\342\020\313?\236\256r\221\020\037\313?\210^N\"%*\313?,\252{\355d3\313?\220\"\254r\023\210\313?L#\306h\246\306\313?+5\006\223\236\006\314?$\302\226\211\350\370\313?\365\346\n\313\254\331\313?\245\010\207\026\215\300\313?\344\374\311\357\237\264\313?\014\223\360W\335\267\313?\202\306\177\223\003\274\313?s\177\237\270\266\314\313?\310\r,8\235\023\314?\034\326\177\226\341Q\314?\004\307D\316\353]\314?\354\010\274\240yQ\314?\360\244v\240\3751\314?\\\017\371C@9\314?e\201\215#\212T\314?\026\"\267\221xZ\314?\t\273e\335\370@\314?x\226]\206\270\037\314?x\261\303\247\037%\314?\372ANy#\034\314?X5\376\000H\006\314?Z\363l!\213\336\313?\364 \024\306\334\326\313?4\355\261\340\275\244\313?\375.F\006\264\222\313?\257N\034\340L\203\313?+\033\020\000\240s\313?,\017`\376\373m\313?\333C\033\260F^\313?\276C\313f\200^\313?~e\231\326\212\\\313?\345u\023h\357M\313?\027\265\034diR\313?Ui\375\300dI\313?\226\203\212\276CP\313?#L\230\003\031N\313?m:D\324+B\313?@E\376.\2468\313?\205@\323\267q0\313?\223fm\377< \313?\266\353Jp\217J\313?iW\235\254\203I\313?\r\006 \263\210(\313?\213>\361,\331\"\313?\361%k\014\356\022\313?\340=\204\024\343\014\313?\312s\335\221:\014\313?\322\333j\231\266\006\313?\353\234\004\016\037\023\313?X\025r\211I\026\313?sl\252\337f \313?_\3635\301\363/\313?$\316>\032D\'\313?\016+\356\325M=\313?\203\236\3038\\D\313?|\034\320I$N\313?8\361\361\343\021W\313?\0038\3655VX\313?\337z\320\220Ja\313?\315\\\214\363\312D\313?\250\366\257\315BR\313?_\200\032J/b\313?\3175\364\230Fh\313?>+\267T\250e\313?b\3223Kop\313?\224+\032=G|\313?\234S\207\344}\177\313?\026\312\333tx\206\313?\376\240\337\013T\205\313?\367.\243-\356\214\313?\020\302{\305U\220\313?\221\206\302\203@\220\313?\356\213N\ri\221\313?\355E\223\017j\224\313?\362Zl\007\341\231\313?\360\256\260ip\236\313?\233\215j\030\013\261\313?2\337\371\371z\264\313?\277:\243\272t\244\313?\210\342\356\251%\250\313?\375\373\301\375\326\307\313?\254\370\2163\260\302\313?O\004\227\345\360+\313?/\"\250\037v\024\313?\337=\216\206V\036\313?\371jL*H#\313?&7\205\363{+\313?\034\375(\035\276\"\313?\332\255\315\025\221 \313?\275s\324C\307\035\313?h_\360\236@.\313?\223\320\264\311\203\"\313?@\307[o\032)\313?\326E\341\345\2571\313?43Y\372\325>\313?\001\014\323\020\270b\313?\300\322\250\251-A\313?`iK\3438,\313? 7\204\251\264%\313?B\341\356\327]\023\313?KQ}\3233\376\312?\263\364ia\213\'\313?\220\221o\223\252\035\313?\304\210\003<\367\013\313?\200 \367\257\3274\313?\246\027\233\247Q@\313?r\255rxs>\313?7\335W\212\211\262\311?\245Y>j\312\020\312?_\374\317\302\347\014\312?I/\322\332 \022\312?\253\357\006\025x\016\312?(<\226\256\310\376\311?\030\3545&\214\362\311?|\210\3670<\365\311?*\202|,$\360\311?\346g\t\203I\351\311?8\315\034A\023\351\311?[d\274_e\352\311?.P\217\303\031\351\311?\233.\373\335\212\360\311?[\372\225\243\007\013\312?\n\351\031\220\367\t\312?\335i\211\232\212\002\312?`u:I \t\312?\023\334\311Y8\006\312?}|\276=:\373\311?\230\272\313H4\366\311?5\000\273\235\364\363\311?@\214\342\345\201\371\311?\244wiD\342\376\311?\233G\223\305\334\371\311?\2730\375\0137\362\311?\246N\366\205F\346\311?\032\003\324\234\010\327\311?\242l\367\226e\324\311?\205\343x\214\222\332\311?\014\277WQ\334\341\311?!\r\2200X\346\311?\336\215z\222\270\352\311?x\000\325\211\025\377\311?\023\254D\265\225\022\312?\360d\220\353A)\312?\341\314\211\037^5\312?\263\036\306\275\\8\312?Z\030\262R\362>\312?o\221\026\217\324@\312?\253\346Z0\310H\312?b:\271N?B\312?K\207r\2253C\312?\220\2210/gF\312?\321\373\\\363\376M\312?\336O\232\301pR\312?bW:\357dO\312?\227\226\361\354{_\312?>U\372\023\331j\312?\232.\3012\001\202\312?}\0275\346\025\222\312?\014hE{\214\227\312?C\273\r\341\315\227\312?\270\214\330}\200\233\312?\014\362\"/E\233\312?\'\335\226\310\005\247\312?\353\267I!\235\265\312? w?\336\023\272\312?\3709\231\023\017\303\312?\313\221\022\336\305\313\312?^&b\310\354\327\312?\235*!P\344\346\312?(\276D6<\357\312?\356\254\025!\000\356\312?v\037\224\270\r\361\312?\241\005\243\275\272\335\312?\013\230\322\220w\342\312?\337\2259j@\325\312?s[\336\371\236\301\312?\246!\202(\232\262\312?\260\310!uJ\246\312?\206\204i\304>\224\312?\373\343A\243\t\216\312?\036\026[\"\306\224\312?\003\034\347\333\'l\312?W\350\220\217nh\312?W\037\351\265\324_\312?\n\226\260W\3247\312?iX\177\220\324\036\312?=B\271\254C\'\312?\326\335\220\324\257%\312?+\010\200R6*\312?\202\244fG^!\312?`\245\374P\333\031\312?\346p\013h\262\027\312?@I\230\241\245\366\311?D\361D\277\237\342\311?\034~\033\210\203\311\311?A\353\225=\377\271\311?m\332\374\'\316\275\311?\220n\211\376\376\304\311?w\\\304\337E\313\311?\371WEn<\316\311?\302U\207\244b\030\311?N\263\311\254\241\376\310?G\004l\3220\346\310?O\232E\2516\330\310?0\325\275/\335\315\310?.\204\026\2760\354\310?\336r~U\361\360\310?T\212\263\250\243\361\310?\321$\3752\"\025\311?j\204X\337\273+\311?Z\245p\024\213e\311?K\252L\267@\220\311?\016k\326\2134\200\311?\0234m\314\331%\311?t\261{\210\314\360\310?\346P|8%\271\310?\326u\267\321Q\245\310?\220)\202\254e\272\310?\267 w\353\336\305\310?\233Gr\267\363\026\311?^\001\304\336=`\311?XP\023\333\257\213\311?rf\261\320\253\232\311?;A0\201:\251\311?\014\273\275\336\334c\312?\31111\024\262^\312?bq\375\220\276V\312?p]\2501^I\312?\337\007M6\021B\312?^\231\\1\310B\312?\302\343}J\005=\312?\262\245\223\341\2020\312?\247\025\203\340!\'\312?\014\243j\005\227\030\312?-\312\360\310\355\021\312?\234\317\244@\253\373\311?\001A\372\322M\365\311?\344\356\253&\023\355\311?\024\311d,+\361\311?g\374\242\324\303\357\311?\362=\024\346\354\006\312?B\251~$s\014\312?\374\342\357j\373\017\312?\365\303\3206s\022\312?\336\037W9\240$\312?\311$\346\003I2\312?\370\334\302 \3248\312?\004Bv\324T3\312?/\302\356\0350-\312?\353=\203\360\342)\312?\325\005\354\005\307.\312?K5\341\316\3554\312?&(\023\361\265+\312?\030\266\361\035\270\'\312?t\n_P\300%\312?\"v\3454\275$\312?&\311\001(7+\312?\250\010\230B\3454\312?\014k\225&\306.\312?\023\204\254 f,\312?\224\276\231c<4\312?\315\213\331\263c:\312?&$2\251*?\312?\335^\002R\303@\312?P\272s\2573H\312?&\303zndH\312?\257\276\226d\3309\312?F\031\014\326\2011\312?\256\226\231\244\3020\312?\300\355\246\347\0375\312?\316Z\232\363=7\312?\343\031v\020\"6\312?\252\n\010\013\3710\312?\\\3678\316\3133\312?\035B\251~$3\312?B4\302\364 1\312?\364kt\231]!\312?\362\372fwU\033\312?\257\343\331\224\024 \312?\375v\225\222>\035\312?\223I\231\026\355\030\312?\r(\'\034r\032\312?mI\002e7\031\312?\242\0144#\254\033\312?\254`+\323\365%\312?\tE\336e\313!\312?\r\334G\217[#\312?\n\006\306\260y\013\312?*\354yiP\025\312?7\031\3430\211\024\312?\324v*\030I\006\312?\301:\373\273X\007\312?\354y\333\245=\000\312?\n\347\326Hk\374\311?\214\311\277\357\017\366\311?\227\020K\201\007\361\311?\225\217\242\243\\\347\311?\204\352\230S\377\351\311?i\201\371\010U\332\311?\030\226\206\264\242\332\311?\303\344\207\366#\330\311?p\272-\335\231\323\311?\nu\303|\232\317\311?\031\274OXY\320\311?\025\370\t\356\247\311\311?\325\3066{0\301\311?~\235\367\246\271\272\311?rc\371A\375\261\311?\324y\\m(\251\311?\004=\263\250x\261\311?\025\337A\315?\243\311?\2071L\032a\231\311?vr\021\325\027\246\311?\221\254uB\345\250\311?\272A\214\216\346\263\311?\325\234\344\220\322\301\311?\335h(7O\312\311?Y\230\300\330;\326\311?\271\356\023+\226\347\311?\213.#\200\221\323\311?\275R\335\366\031\344\311?\262\243\307\250\230\356\311?\307M\000\n\235\363\311?\353\235\203\307\264\377\311?\340#\334\020U\013\312?\370\272\356\250\217\022\312?\313t\243 \\\'\312?8\303z\224++\312?;UL\022<\037\312?\253\305G\216\353\024\312?\231\251A\177>\035\312?\242\205s)\210#\312?\352k`\"\023-\312?\234\336\305\373q;\312?V\177\223\214\355L\312?;\207\370\250;f\312?vu\"\034\016f\312?\\v4\200Jd\312?\031Oy~\225_\312?d\020\377\200lq\312?3;\007\246\005u\312?\325\3772\022\263t\312?\001\262=\236\211u\312?\273\332\\\305zT\312?\025\n\367\033\004U\312?\021\210Vu\366X\312?\232j\223\256\214R\312?Q\202\202{3d\312?G\373\260\302Sf\312?(a\350\t2\037\312?\337\232P\225\252\005\312?\177\000Eq6\371\311?\357\020s\007\271\344\311?\323\331\371\031?\326\311?3Z\351\343\021\304\311?\n$\242D\275\263\311?\\\345K\240o\250\311?\301n;\341\343\233\311?\013\362A<\003\204\311?\017\025\013\305\033n\311?\226<i\244Or\311?\rd\231%\321p\311?\017\\\374\245\371n\311?\022_\346n\351n\311?\3750Bx\264q\311?\252\007b_\006q\311?\316\355\341o\324z\311?\267\202\321\245\262z\311?\300qQ\341\223\204\311?7\306\033\207d\202\311?\033J\377(p\206\311?\270\2344\325\337\207\311?;(\223\340.w\311?I\004\323\376A\203\311?j,\006\264\031\214\311?e5~]]\300\311?\242\032s\372!\306\311?v,w\345\001\214\311?^\031\264\215\310\202\311?\275pJ\355\003\330\311?\213R\223\367\251\236\311?\233\010\004\002\351\227\311?fK\351\250\211\217\311?\324\227\226rm\221\311?\350\303U\223\027\201\311?\371F\0073\214\214\311?-g\347\033n\223\311?\321\343\302D-\224\311?0\014\353\325\346\220\311?\356\351\326\252\336\223\311?#F#-\002\224\311?\224U\302\'^\244\311?qEK\346\244\254\311?\250\t\177\337\357\262\311?J\302\232\327\314\262\311?\232\343\261\246\177\267\311?\350\333\202\245\272\300\311?\212\202\256\267\254\306\311?1,\034\224r\257\311?\347\314i[<\230\311?\031\250\352\360\240q\311?lI`\3268Y\311?se\246m)K\311?\345\237\266\231LM\311?9fZ\024\326C\311?Y\322\022\252\"<\311?E\030\237\377\247-\311?\327\250\233L[*\311?\376\221\252l\246\"\311?\207\252\005\347m\033\311?\221\335N \301\024\311?\265\'\004Oz\017\311?\276(N\251\243\007\311?0,\240\314\026\373\310?]\373Xz\232\367\310?\0230W\222~\363\310? y\240{\372\373\310?q?\217:\002\004\311?RB\253\361\244\025\311?\333\302\322D\310N\311?\306\212\311\004\304p\311?\346\356\3165\'\212\311?\376[H\016x\243\311?\272\014\263[\301\262\311?\263\366t\376\270\300\311?\356=\316\307\304\314\311?ru\322\213r\332\311?~\340K]\t\317\311?\3339\002\365\274\324\311?i\345\313\374\204\342\311?ck\343s\032\356\311?B\003\005lt\377\311?\261\330\233\"\004\007\312?\204\357:q\362\010\312?t\002\303\207L\030\312?\013N.\332\244!\312?\014\237T\313;&\312?\022A\237?\242F\312?uFJi\354A\312?,\227\232\370\373)\312?\233v\364i\\\022\312?\223l\0379l\367\311?\027Hb\337\324\333\311?Zl\002( \317\311?\356\345%\234i\204\311?W\211\216\361\034b\311?\354\304,N\221P\311?P\005\324\202\264R\311?b\373\022\357\325N\311?\020\314\001\035\016T\311?~T\031\177\010U\311?\311-\212w\260`\311?\'\260\233z&y\311?\025\276\267\034\301c\311?\016\317}\377\007T\311?\314\207\344\207\361j\311?1\277G\273\331x\311?0\355\371l\255\207\311?0]`\rR\233\311?>\242(!o\261\311?\025\256\024\360\325\310\311?\263\\H\035\243\320\311?o3\347\251\246\325\311?\320\204\242P\201\331\311?/\245\330\030\016\340\311?\t\227t\345\312\330\311?\234\310\236\315B\354\311?5\222\3125\201\371\311?\224iC\344E\375\311?\377\204x\371\335\001\312?\250;\226\021\363\371\311?\017a/&\223\331\311?\367;\363\366\020\342\311?`k\344*~\342\311?\023\330{u~\337\311?\340\360,\210\033\314\311?\375\\j\rp\304\311?\234[j\202}\273\311?I\364\251\230\207\242\311?\026?\370\026\367\233\311?\311\363\256\264k\206\311?V\022C\354\370a\311?\304A\000x]b\311?\326\207\300T\335j\311?\326(Q\032]j\311?\026\346e\226\002g\311?\303\366\000\316l\006\311?\374\356y\245\374\t\311?\331\234\270Y\022\031\311?\200Xn\035\247\036\311?\275f\022%\274%\311?\333\207T\002v6\311?\001ur\2427>\311?/\021\002\001QA\311?R(\006\246\245B\311?B\362\371!iI\311?x\320\376\235sK\311?\016/\270\201cX\311?x\276\307\342\374b\311?\2330\'\211\241l\311?\030[\221c\256v\311?\336X\tC\010{\311?Q\013\203\004U{\311?\332\277\352|\003\211\311?\254z\274:\016\226\311?N\377\345\234\320\222\311?z\346O\225\233\232\311?\366-\357\201\210\232\311?A\'Jc0\226\311?\314\305\177\204\330\216\311?%\211\370cg\205\311?\241\206\346o\177\204\311?\004\205DQ\325\201\311?\324\034VA\327\201\311?\024\206\376\222\037t\311?\353\\\315\021d\212\311?#|M\341\321\236\311?\277\365T\223O\253\311?\":\016\000x\253\311?\220\340Z\256\375\253\311?\014\026\3374\243\275\311?\006\024\330\006h\307\311?N\027\200K\242\314\311?\025\036\321\2203\305\311?\322\246\345e\037\264\311?\267\357cby\253\311?)w\300\361\214\250\311?\001\032QLq\244\311?\243(r\266\360\244\311?@\222W\274\230\263\311?\035R`\217\366\260\311?\304\350^\314;\263\311?\375\215\362\243L\260\311??c\364\026\356\240\311?\243\031\230\320\265\223\311?/\200`\366\001t\311?2e\313\345KW\311?\217\022o(rD\311?\221\014\343\265\3458\311?\0106\312\324\006\"\311?\240\331\013\213\245\026\311?\372\361\227\026\365\t\311?\254\367\213Av\n\311?\372\367y\211:\376\310?\315\205MA\327\356\310?L\200{M\370\355\310?\272\341\213\267\024\336\310?\213@\314\220\360\336\310?\206\354\325*n\332\310?\007/U\304D\336\310?\215\251\2161\204\327\310?\2200\273\020s\325\310?\027\277\332e\200\312\310?\010\226N\344|\303\310?~\310\370\203\303\303\310?\204\270\223\004\270\313\310?\352=\206\250q\330\310?d\215\352\334\003\340\310?U9\025\362\006\355\310?m\271\370\260\036\004\311?6gG!\376\036\311?MD\016\375R@\311?\234\235[\324f]\311?\tL\235\003\250\202\311?\211\212W\252\"\224\311?\313K\330`\334\253\311?\313\334($,\271\311?Q\357N\343\203\303\311?\232]\307\035\016\311\311?\240]\375Y\245\324\311?\223\330\004\004\262\330\311?-\0362s\356\347\311?\250\010\005\337\023\357\311?|\224\201k=\357\311?\340\314\262\236\217\357\311?556_\030\365\311?<\352k:[\360\311?\275\341,\217\257\351\311?Yz\346E#\350\311?\'\264+{\262\345\311?\t\326f\323y\343\311?!\232/\3452\344\311?\021\005\320{\245\344\311?x\216\257\332\210\351\311?s\370\210\276\331\353\311?\330\3502\273B\355\311?\352\374F\001\303\356\311?jd\246\240\032\360\311?\022U\312\373\320\366\311?\355\033~\210$\362\311?]\302l\305\250\362\311?\2749\253\361\021\362\311?\232\361g\214\227\355\311?\235\245\316\035\251\360\311?3\224\231&\372\351\311?\032\273\370f\221\351\311?@\240\r\242\260\351\311?\031(\276\024\375\345\311?$]u\0259\341\311?_\354\317\333^\346\311?4\340x\263\020\341\311?\370i\303\376>\345\311?\310U\314\013\'\336\311?\307x\215\220\223\337\311?F\251\364{\261\343\311?\236\3637\307\327\343\311?<>}\253E\351\311?\372T\023\031]\353\311?2\206]\007\023\356\311?@\306X}\340\360\311?\363\273\312\211_\371\311?O\340.\337 \370\311?Tp\340$\271\373\311?\237R\312\020l\001\312?\220\316:\217\374\024\312?\214\"\246o\222\031\312?f)O\334\316\027\312?\020\033\217\306_\"\312?\037BU\177\226D\312?\214\260\"O\004D\312?\203CL\342\334A\312?\032M;\360\302:\312?YI\301\331\001%\312?\307U\270\'@\373\311?\002\3114\315M\361\311?\256\347nNZ\365\311?\252>\246\241\205\005\312?\276\033Jn\306\t\312?]\310<U2\376\311?\003\250j\001(\346\311?\273\343Y\361)\332\311?\251QR\244\036\311\311?\026\212\334\"\034\262\311?\241\023\022\316F\245\311?\304\'\322:\000\233\311?\025\255\300\266\234\220\311? *Z\2474\234\311?\032\206\321\244\373\226\311?\255\305\334\362\347\224\311?$\\\n@\212\227\311?\334jx\250\335\227\311?\0320CA\373\241\311?AB\'\2239\247\311?\\\256\222Py\302\311?\220\006\253B\347\333\311?J\n\217\252\344\353\311?\225:\335\206\014\374\311?\000\020Jt\243\003\312?\215y{\342\311\006\312?/ \334\346\213\022\312?\236\260\260\037\343\003\312?^FeN\215\023\312?\322\255\206\255\241 \312?\303\313\352U\030&\312?\311\346Ty\325\037\312?\265e\242\003\360!\312?\214ko\374\370\'\312?DS%\263B\035\312?\313\200\007\224\272\025\312?\030gq\236h\031\312?o\326\321R(4\312?\'\322m\361?%\312?\344+\363\351\300\030\314?\305]\212\231\347B\314?\250dzn\023A\314?YG<v\243Q\314?^\244Z\2101P\314?B\314\251\215\177Y\314?lJ\211\217\025]\314?\203Pg\271/Q\314?`?\330\352\361I\314?\321#Z\263\024W\314?\324\005\311\366\262Q\314?y\354\302j\207Z\314?\001\312\351/\027X\314?\344c\252r7N\314?\263\314\333>\317R\314?rJ\236\275\303E\314?M\365\227\357vC\314?\025\221\357\277\206A\314?\305O\203l\320L\314?K\241\221\247cP\314?o\035(_\354W\314?\201&\307?a@\314?\363\005 \372]4\314?Z8\021Ii@\314?3\235\325\266\354F\314?\225\226}\226hB\314?Z\250\225?hH\314?\300\303k\2317G\314?1H\004\'\376O\314?\240\236\227\272\306O\314?J\233\230\230\250J\314?\324\346y\034xH\314?\357\036.\246\212C\314?kk\007\315\365P\314?\255\275\\\177\243A\314?\032B\211\'\237D\314?\225\207\357>sH\314?G\036\210,\322D\314?\013\222*\311\273\\\314?U\322%DBY\314?\323\302S2zZ\314?d\310\213.jU\314?\245\342\345:\244P\314?\344\305\314\202\254N\314?\2569\n\207\023U\314?0\010Qc\347R\314?\223\225\'\\\004P\314?\357\027\007%9Q\314?\3239yp\373N\314?l\307e\300\177Q\314?Hg\257*:S\314?\221\245~\372\251S\314?Z\225Q DV\314?\233\355taPX\314?k\221E~#X\314?\023\266(~OV\314?\020\376\311\010=U\314?\264gHu7X\314?\266\004\331\345mB\314?\001X\006\235\\H\314?\006\205\360QG\023\314?V\006\252\206\312-\314?Z\316$8\225\017\314?\216\367\020xS\026\314?\303\345qK\275\004\314?\222\307EH\354\371\313?\256\212\027\333\t\016\314?f\n\325\2017\032\314?\034\201}\026y\t\314?\207\237t,3\010\314?\360U?\367d\014\314?j)\026{\014/\314?g^/\311\330;\314?\320\002.t\227W\314?\265\216!5*\206\314?\301C\220\004\223\273\314?\013\250\235\2050\003\315?\337~=\202\3020\315?v\\\374\211\244?\315?R\217\317\214\307J\315?J\306\215\002\024H\315?\263`Y\236DZ\315?\177\271\273s\315\211\315?4\360\025p\336\236\315?\353\025\021#V\217\315?\346\232-\031\372y\315?\364\312\246p\305D\315?p\373 \366\002&\315?\367\307\317\324X3\315?\240\220\375)\336\023\315?\"a\323\333\203\366\314?\271N\356:\305\361\314?\377\206?y\016\333\314?a\361\025\211{\277\314?\312\343\304\262\364\274\314?@#4)\325\243\314?\177\274x\2735\233\314?\275\367\206\256\203\204\314?\202X\304\035`\207\314?^\235.N&u\314?\221\245\225\226\037e\314?\017u\364\377w2\314?\336N%zN7\314?\227\327\276>B&\314?\352\247-\345\344\024\314?X\302=C\366\t\314?\375\'\376vy\375\313?R]t=\307\003\314?\357)W}P\005\314?\353\225\211\215?\362\313?\255[\237\232\024\344\313?\305\000\25249\347\313?\365r\366\323!\345\313?\013H\310.\273\341\313?u\321\372\325\310\340\313?x\240y\371\320\327\313?l\344n\233\237\336\313?\343n\352\345r\341\313?[l]\341\222\340\313?\302\2268\241\371\344\313?\372F\002z\322\343\313?\374\231\247^\252\336\313?#\305L\027l\347\313?\231\323\2710?\350\313?\t\234\225\202\250\332\313?H\306\261\310\213\331\313?\'\241}w\356\347\313?U1\327\232\224\337\313?\025O\301\n\205\302\313?\247\365G\260\"\267\313?\013\017XA%\221\313?>\277\016\355za\313?\333\034\354\357\232G\313?\275\037\226QU6\313?;\266B\261E-\313?\214\352\320\220\301/\313?h\236\r\rL-\313?\241\376>\331PN\313?\224|}\221\366\235\313?\374\023sH\036\323\313?\337B3\\\330\353\313?\230<.Bb\017\314?\352\021T\241B4\314?\3240\247\304\250=\314?\3762\250\316T\\\314?\3112\023\370\002t\314?\247e{_\"\177\314?\016\253\037k\253q\314?\314C\314C\2535\314?\355V4u\325>\314?\347t\264\005\337O\314?\341\312\317\311/\\\314?\202\224\274`\216c\314? \370\037f\035x\314?\362\274\332\245\233q\314?y\263s\213\332l\314?\357(\204\304,j\314?\222\0279\0163i\314?\232I\333\305\"p\314?@Nw\"\261r\314?\034CVp\245\202\314?\272\312\335^\007\213\314?\201\0018\201\337\202\314?\030\034\266\021u}\314?\210\240\213\002Tc\314?\001\204\310O\316C\314?xD/\352-:\314?\016\344\362\202\374*\314?;\3417\033\261*\314?\335\336\240\203O/\314?\315\366\014\324n#\314?\326\343\017\035:q\314?\332\027\ro\217\213\314?T\221\036G\362\243\314?\2620\317@\350\275\314?\277\203\026G\"\312\314?t\014\351l\330\341\314?&\327\354\377\036\347\314?\236\362R+\370\337\314?\365V\212\010\362\370\314?\355\322\206\303\322\000\315?\261\204*?\355\023\315?vV\025^\245\"\315?G\324b\365\351&\315?b\303\037\272\2520\315?\245\247\341\276\2022\315?]C\355\332\2056\315?\307>\252\\\006.\315?\270\210\302C%)\315?e\202[#\364\006\315?\270\034$Nk\366\314?\356B,\310\272\353\314?\330\211\344\216\253\317\314?\221\366\251\244\372\300\314?(\366=\333\204\252\314?]\264\244\374\324\223\314?\303e\342D^\220\314?\261\'.\205\017~\314?\275F\273\237\215{\314?\316\004D:\234v\314?\te\201y?c\314?\205M\360\217\3579\314?E\241\300\226\262\'\314?\337\000h\321\221\325\313?\356\227\306d\256\342\313?\030\307v.\364\327\313?\035eK\366\322\313\313?\254\3601\317\177\314\313?\032\216\271\373\264\273\313?\177\336\354\300M\307\313?\273$\333\264\252\311\313?\025\336d\242\250\266\313?\361U\002\224L\257\313?\202\314$\2430\223\313?\034Of\344u\202\313?\307]\3716Aw\313?\307#(\346on\313?\327<\273:\317q\313?|\264$\177\261p\313?\010\030y3Lh\313?\357\205\030\233\225n\313?\364/\024s\272s\313?\361n\203\337(g\313?\027\322eZ0k\313?\374dM\253o\200\313?\273hj\007\223\312\313?= \207\303\375\000\314?\241\033\350AD!\314?:\353\026+\261E\314?\205\250\021\346\265S\314?\231\333\'\301\307R\314?\264\317\024N\223X\314?g\226\317\265\331_\314?\2610?\225\245f\314?\2756\305*xf\314?\301D\332\313Xb\314?\374OR\356\253c\314?I\230\336\010\317g\313?C\005\364\263r\336\313?k\260}\274\350\317\313?\366\365o\243p\331\313?\265\322\345y\342\314\313?\005\333-nH\310\313?\271\351\367Fr\316\313?=\033\214\355\302\312\313?\345t,\313\344\317\313?\373@\001\372\316\306\313?\241\t\204\005F\312\313?\334\221\223\204\242\313\313?\221)\335e\330\313\313?\234{\376j\304\302\313?\3234\324\232y\301\313?k\211g\231\335\304\313?R\246\316,\324\335\313?\332\240O\024\203\350\313?\363\274\370\373\365\345\313?\371\311\341+k\357\313?\364\307\201E\350\341\313?\273I\251\327o\336\313?9\223\314pW\275\313?\204>\310\032D\227\313?\210$\250Q\260\225\313?\330\233\307J\224\211\313?\221`\271\304\342\216\313?\362\274L\373\203\224\313?\203,\277\227\270\221\313?\361\030\251\355\342\232\313?\035\266\227\256\014\234\313?\362\337wd\220\241\313?\245.\261\343\323\244\313?\341\351\213@\231\237\313?\006L\243s\305\237\313?\375(\006\"m\236\313?\302\340\215\021\370\237\313? \316Vm\035\255\313?7,\316\227e\257\313?\t]f1\341\262\313??\333rGb\266\313?\251\305\221\033\006\262\313?\264B\335|-\254\313?\2203\\\003\254\254\313?<t\303\264D\256\313?A\276\361\246<\251\313?A{\317*.\254\313?\373o\346\326\362\252\313?\036\022^\205\013\256\313?<\272b]\024\261\313?\203\033\r\006\365\262\313?\344K@\375{\261\313?,\260\360\303{\255\313?(\"w\234\230\261\313?\327\242w\275C\260\313?\362T\260[>\261\313?R\325\t\n\261\252\313?N\007W\345\347\253\313?\306\227-\262\315\250\313?\022\261\017R\272\253\313?[\254\241\007P\251\313?\306\362\244\010M\253\313?\333A\340\331\002\250\313?\237\233\373\200G\241\313?\261\n\260\234x\237\313?O\215o\246D}\313?\311Bl\227\3231\313?,\252\343\320\331\204\313?(\tT\302\275\271\313?\334\024\006\232\014]\311?\233\370r\270\271\345\311?\200Q&\216l\311\311?].\025-\326\366\311?\016]t\245\252\370\311?g\322\205\3345\366\311?\271uq\372\376\366\311?C\322\026\363M\374\311?CAc\005C\006\312?\222I\265k\034\023\312?\240I\273\001\001\023\312?\307\003d\304\022\n\312?]\237F\025V\016\312?]\203\264\202\203\026\312?x$\257\345\315\025\312?\t\260yiK\034\312?\230E\223Q\206&\312?\322\316\032\320\2231\312?\320f\n\332:1\312?\304I\215\025\2445\312?\263cI\327Q7\312?(\214Q\312\2609\312?\273$s\32158\312?>\312\273\374\344.\312?\257Ui(AA\312?\307Py4\010E\312?\231\2478\343;>\312?\2315y\026\371?\312?\254\301p\270\3239\312?\030La}\272<\312?\343P\260\340-9\312?\251)\367r\007@\312?\277\030\241\nE[\312?hS\025\035@t\312?\306\365\224AZ\210\312?c\303\252\2543\237\312?\271T\022\312\334\253\312?\325H\272\202G\275\312?\3178\344\321S\305\312?\266\\\024u\232\320\312?A\013K4/\344\312?\2116\312q\334\346\312?$$\315}D\334\312?\354\352ScI\306\312?\342%\306\237\231\301\312?\327&\222\013u\250\312?\325\247W\365\262\240\312?\010\223\003\362\374\224\312?y\206dY\024\234\312?\315\260\206\310?\254\312?\263\365\365D#\224\312?\031\325\r\007N\245\312?j\265{J\262\264\312?\3478\207\320\340\255\312?\236\224\2547(\251\312?\316\'\026\353`\254\312?q\216\3449\365\235\312?\016\265\204\264z\222\312?l\243],\334\227\312?\347\272:\021\016\307\312?\231>\212&\217\350\312?\310\306\213\236\276\022\313?\350\251\2179/K\313?\222XM5\205^\313?\2443\303U\204l\313?^\327\275\202%x\313?\342\203\331/\230r\313?\275\035~\212%]\313?y\371O\227\302L\313?\274\014\241x\005J\313?\302\215x\330b<\313?\370\352\272\"\2764\313?\244\244\374\256L\033\313?7\253\205,\347\037\313?3\326\236\\\312.\313?^C\323\206\2016\313?\357[\003\024PL\313?Or\352w\037\217\313?\325\331=7<V\313?\246\234\016\350u\231\312?\307\177\303<\022L\312?\257\340rMe7\312?R\354\306\215\3537\312?uWP\372=O\312?]\266Jn\034J\312?</\250~\304@\312?C\267\224|\267<\312?\376@\366\320\367@\312?\323\014?\276\330I\312?g\017\017\274\265g\312?\374qw\255\357\211\312?\354\242v,\247\236\312?\241\376\035\313g\253\312?\022\311 \017.\261\312?\233o\017\005\335e\312?\033\202l$\314^\312?\336|\tfc]\312?\246\350\314f\243m\312?\\\357\035\206m\203\312?\301jH\266\234\206\312?\203\354\030\376\243\224\312?\022\024Q\251\230\236\312?kM-:\335\242\312?!\243}X\341\251\312?\210\\\236>j\242\312?Yt\324\231\307\226\312?\375\351\302\354\276\223\312?~\274_\036\225\217\312?\233k\366\022\363\204\312?IA\236\372\223z\312? F\240\253\301|\312?\243\324w\341{}\312?h\374A\2533\201\312?\025;\352M\344\200\312?\354\333\237D\261\200\312?\246\026r\356t|\312?M\223\276\265\270k\314?\1779\231\t\235\217\314?\262\210\354y\272\227\314?$\344\3569\321\252\314?\244\227\261\236\343\256\314?+\243\010\336\315\251\314?\253\377\023&\003\265\314?\030D\372\246\026\265\314?\273\003\232\332\342\262\314?\265\"\263x\206\260\314?\014`7]0\247\314?\336\364\212Nf\241\314?\'\360\344Y\235\252\314?H\225\245\371\n\242\314?u\204nW1\232\314?\'\365wLc\217\314?-\357\216\262\234\211\314?f\006\2369\363\204\314?&\322c\177\314\223\314?a!6\0028\220\314?\371F\247\300_\222\314?f\345\304B\240\177\314?\341>8\300H\177\314?\265\343\225\n{q\314?\206\267lL\006\202\314?Ed2\376x\215\314?y\222\353\333\206\247\314?\221\356\003j\023\242\314?\034\250\356\362\366\245\314?C\006\326\227\303\263\314?\267\323\265zw\271\314?\262\267\321V\336\273\314?.\241\333{S\271\314?\267kI\024H\263\314?\265\312#\352\313\263\314?\216\031,\305#\253\314?($_*\262\255\314?\305G\233\025\027\250\314?l\371*\364\037\244\314?\323\205y\013\373\250\314?\310\2505DJ\260\314?\033\372\352T@\264\314?\223\250\313\355T\274\314?\242:\270\234\224\307\314?\214\222\302\202\034\320\314?=l\364\372+\325\314?q\307\267QF\327\314?\\\024WD6\330\314?\273\007\004\024\314\323\314?\360\n\005\353\206\315\314?\2122\206\377\225\321\314?E{\224\310@\311\314?\377\306\212Y\260\306\314?\020E\021\352\323\276\314?\341XOa0\265\314?\360\337\252U5\255\314?\230VJ\234\003\256\314?\215!\rb\370\254\314?} \353<9\251\314?2,:\352\314\243\314?\322\274\232>f\240\314?D@\014\024{\237\314?lp\324jE\344\314?\352\023d\367)\366\314?\333Zx\301T\361\314?\335\214m.\013\341\314?\326l\030\027\244\337\314?2\262M\362o\314\314?Ca\006\031\267\307\314?\366]\273\373\266\274\314?\327\357\240\021 N\314?tg\247\230\343\322\314?iq\366i=\005\315?\307\305N\001\373+\315?\331\366\326\275\236:\315?\227R ~\301X\315?GM&4jz\315?\016wN\343y\221\315?b\335J?y\211\315?\325\217\340U\365\203\315?\345PB\215\233\212\315?\202+\032\027\200\231\315?\354w=\245>\241\315?E\373\331A\205\240\315?\033D}(W\214\315?|\356\2103T\177\315?\313\345\3433\ty\315?\205\360\325\177\267o\315?)\362+\243\177l\315?P\275\245\004\023k\315?x\200\006\037ss\315?\357v{\030sz\315?\240KuW/l\315?\036\201\257P\272`\315?\032\370\2647\266f\315?\2063\355\322\356f\315?\312{yZ\256Y\315?\300h3\247\373[\315?\313\3209\276D\\\315?\376\263\363\361aZ\315?Bhj\375 W\315?\002[N\327MH\315?y\235Q\026eF\315?M<|\246RD\315?\351\006m\346N8\315?\323|[\321b@\315?\244\014\371\300\2768\315?\214\273\014\302\206.\315?\232YA\217\365-\315?\355\343\032\377;+\315?G\037\322\363\227+\315?\326\033\030\355\257&\315?\'\273\253\264K/\315?}l\247\272;C\315?\323:\261T\005M\315?T\363\376:\225^\315?B\027\356\013\321i\315?N\313=\224\320l\315?\255)\315<rQ\315?\366y@d\2074\315?{\241\302\t3J\315?rFFg\226M\315?Q\252\204\364\002V\315?\234\320w\371\316V\315?\322\260\001\3317l\315?\027\363d\030&|\315?\275\220\314\362\216v\315?XB\300\037S~\315?\367\275\350S\020\201\315?\313o,\203\305|\315?\266\022dK)\204\315?S}\271\3379\205\315?\"\371\003K\231\207\315?\341\375t\340\365\211\315?\356\253\211=h\201\315?\314_\252d\303\204\315?_L0%]v\315?3\223\366\246\354k\315?Qv\351\025\005p\315?t?\351<\021a\315?\252V\025\320\372J\315?5\321z\007^>\315?^\207\031\003\263N\315?\330\372kw\344O\315?+\220\004\332PC\315?\023\005(}\211G\315?\264\266\337\220\3747\315?_\01046F;\315?\356\206\273\032\243,\315?37w\245y\010\315?\323\347\003\377\344\372\314?\202\376\204\253\352\002\315?8\255\317-X\020\315?\036,\\\211R\030\315?}\353\024\302\242\026\315?O\\\034\0028\027\315?M)\376\333\244#\315?\273\336zp\036\036\315?\202\206\'\211_\020\315?\303\326\t\273j\026\315?!@S\235x\010\315?\307p^dN\014\315?\214\351\021\274\204\367\314?a\241\256l!\363\314?\245c\374k\341\010\315?o\221X\253\246\006\315?\371NZ%I\361\314?\351H^88\332\314?\031\032E\222\375\314\314?\215O\262\351\311\273\314?R\266W\005\273\270\314?N\240\0238\225\251\314?YWD\316t\217\314?\032@\222nX\216\314?\020\025;\3761\213\314?\370\200C\037a\225\314?N\035\0260\242\251\314?,\020\325E\036\311\314?\364o\016\014]\337\314?\303\026]\014U\331\314?|\035,\364\245\335\314?\315\n\010W\207\366\314?\334\377\375\262F\000\315?\362\321k~\277\002\315?\301\223\350\365\277\r\315?\240\264\005\276\201\r\315?tX\2422L\r\315?\210\023\363\007^\010\315?\334Iy\352\347\006\315?\302\374\323\025\205\000\315?\360\001\255\005e\366\314?\010\037p{\207\375\314?W\214\200+U\371\314?e\005\013\234v\365\314?v\263\007\246\017\347\314?\302[s\211\033\336\314?\232x\346i\351\037\315?a\236\0244\315>\315?\335\325\260\201\242i\315?\316\230Y\266\234\354\315?\320\366\362\177j#\316?\267\321\216\210\032f\316?\016\367\3300\037\235\316?\004\274\215L\016\277\316?\022;9\224\270\306\316?\254\334\302\365S\334\316?m\367\255\001\n\350\316?<\370\022\365E\354\316?\004\025\317\205\003\364\316?=T\367!\237\362\316?^\354\266>\276\332\316?\254\2363l\013\204\316?\2464\276\326u\r\316?\035T\214:\r\255\315?\201$\245\006\276\225\315?\267t*\353\307~\315?\202\274\257\2560[\315?L\255\202\016vg\315?\261=\260l\261\236\315?\213\316v\250M\354\315?\234\363\322\233\361\200\316?\257\212r\224|\337\316?g\002\304\253L\373\316?%\233,gO\377\316?\215V\256\352\276\371\316?\2169\225-\016\376\316?\301&\264\252\372\334\316?W\030K&\341\241\316?H\325I\222\364d\316?Q\251L\020\371\027\316?\205\313\026\210\037\325\315?\207\370\371\202%\275\315?\220\341 =\037\207\316?\272\022\017\2257a\316?\325E\225Wj\032\316??\021\325\245\220\365\315?[ox\232\374\361\315?\003\330\001\211\206\002\316?I \261\037Z\022\316?\342*\216\204/,\316?\253\236\\\353<>\316?$nl{]4\316?8\334\366&N:\316?\334\243\302\316\320\\\316?\253x\266V\232e\316?\351\337\216m\242a\316?\235;\333R\360\\\316?D\310\331qLa\316?\336\003\305\246\315l\316?\003\254\350\036\370i\316?\030&\341\257\272o\316?\355\246\376\273\352s\316?\353\3356\213\313|\316?%*+\270\345\204\316?\242\010\334\314~c\316?S\346\341b\027U\316?\222\210L\240XL\316?S7\330\032\230<\316?\364X&\010\306\035\316?I7s\\N\010\316?\266-\021B\034\370\315?-\2128L\035\354\315?\000\347\033\212h\337\315?cb\220G\262\277\315?S\231\343\216\227\253\315?\255\027\277\000-\243\315?6\226R\305\304\216\315?\336c\215\323@\216\315?\244\301\240^\206\205\315?\334\232j\351\256\205\315?<Y\372h\"\200\315?\314N\244\323qw\315?{\205m\332xo\315?\270P6;\013h\315?JAp\302\250W\315?#\301\257\354\335:\315?\001xv\277+>\315?4B\276\322\231>\315?\375\206\257\315\313C\315?j\262\254\037\216:\315?2#^\314\006A\315?##j\031\336)\315?\211%\323\013\270\023\315?\346\177\202#2@\315?sp\300\031\302R\315?:\3248\231\215U\315?9\340U7`U\315?\357\371\025\366\252Q\315?,\370\351OMO\315?5\036-M\230P\315?i\213\025|mR\315?\206\323\177_\356V\315?u\014I\337\004\\\315?\320b\010\204\306a\315?\254\206\205\331Rg\315?\204\224\031\033,o\315?\374\252@S\315q\315?\262\230\304\230ux\315?\"\341H\216\336j\315?\205\030@\334\373r\315?\342\200\337\204\027\204\315?\337u\335+X\202\315?Q\240\330\325\247\206\315?\324\205\200\305\337\213\315?\272\310\315\010 \211\315?e\213\222\372,{\315?\236q\034\2435y\315?\031\252\266)\213s\315?[\r\024n\265k\315?\204\342\217\356\\b\315?\313\375\006\3248g\315?\322\022\000#5[\315?\326\262\214?\027n\315?>\265\205\3353o\315?\013\233M\274\rn\315?n\324hD\371Z\315?5\rW\365\\`\315?\231\311m\204\020S\315?}$Uv\"J\315?3Si\252x:\315?3\376@cm&\315?\332\327\313\000a1\315?IZ\345\232\346C\315?\365:\230\003\363F\315?\260&m\257\247K\315?\246\025\346\n\335O\315?|\020-r\202H\315?\331\306D\357\371F\315?\226\206h\024\225D\315?=r\260\246\316=\315?\330X\255?\316#\315?\314\271\007-\223=\315?\301\016\"mq:\315?\260$\263Yy2\315?+j\nF <\315?r\241\227\366rD\315?u\267\321Q%B\315?Y\210vd\230R\315?\270\324n\337\226T\315?\305\366\203O\255]\315?G\225E\207\336g\315?\203E\333\267\256f\315?\26370m\303^\315?X\007\313\316^Z\315?G\200\233\021\032K\315?o\223$\344\220H\315?\352\rsY\267G\315?g\232\260\375dL\315?\006\363\352+._\315?\303K\376\224\033f\315?\'\364\244\223?t\315?Q\230\251\251bs\315?X\32187\032~\315?\324\315\254BVy\315?,\352\301\024Mv\315?\260\201\017\206\203\202\315?\0053\331Q2\177\315?\003\370~\325Wx\315?\2422\332\267Nt\315?\346\355\354Q\326t\315?\2767\322\216%p\315?\333\005\234\010\217t\315?\010\031\337OA\211\315?\224C^\353_\215\315?w\344\311\347u\201\315?\315\245N\306Lp\315?\307\016\241\177\277n\315?\'Q\336\2605g\315?\361^9k\205c\315?Q2>n\355t\315?\311\272\352\307G\307\317?v\366\024\207\323\314\317?\315\035Q/e\221\317?\257Z>7\331k\317?\263\203B\353~a\317?\215?c\274lO\317?\207Qa\203\275=\317?p\277\021\027_8\317?&\034\211\266\2641\317?\006\201\225C\213,\317?]\331w\330S\021\317?\270\237\257\000v\023\317?\277\tP\026h\376\316?I\344v\300Y\360\316?F\243\337\027\307\343\316?9\207\320\340m\340\316?Iu\336\037\037\317\316?\355\240=W\216\242\316?\230a\321\344\312\257\316?\250\000\321\371\024\263\316?\237A,c\217\305\316?4\276d %\357\316?\250\371\300\0249\022\317?P\357\315bn&\317?<\222`\344D?\317?P\270BKcc\317?\006\377\232-\322d\317?\327\242\276\222\317^\317?\201\333\357]>j\317?3\233\026\250\004\205\317?TO:\037\013\302\317?\263\rFf\332\360\317?\367\357H\\\312\360\317?\321L\232\200\013\004\320?\353\227\326F?\021\320?\022\313\264\235\271\036\320?\352\304\367[\301*\320?Dp\342\377\0343\320?9;\211p\3427\320?\327\314\202\322\025A\320?DP\242\026d:\320?\233#\206x\1777\320?\013\302\022\230\0319\320?\376r\216\203\020%\320?\r\351\275\037!$\320?\202\354\016\2140#\320?\336y\022sq\035\320?R_;\275\367\034\320?\236\313N\353\250\035\320?~\250K\376\333\020\320?\244\312\375\374a\005\320?\271\213!\032\214\372\317?\213\373}i\313\345\317?O`\334;\332\340\317?\250\033\341\032\303\317\317? \333\302\213o\274\317?C\235E1q\322\317?\366\332\227,!\361\317?\204rJ\\\241\361\317?\260v\024\347\250\003\320?g;\215Q*\003\321?\220z\006\017\376\336\320?\240\212\251a\260\334\320?\223\r\362\032\276\334\320?\375\205\0361z\316\320?\321\333\000\265\026\273\320?\212z\027\250\362\241\320?\234e\334\365N|\320?]\276\244\032\276Q\320?\272\307 \027\237\031\320?\212\346CH\304\361\317?\353\003@J)~\317?\326\005)i\337\013\317?\266\252\035\254\234\311\316?\232K\351\032\337w\316?0@\233O/N\316?$\330\"\343\375*\316?m\2145\r\236\n\316?\264\035\244\276d\027\316?\365Y\252z\0253\316?1\275\372\001\332Y\316?\315\374\n\234\343\221\316?$\312\225|\027o\316?v\014\014|\354>\316?\rh\2404\377(\316?l\243lW\t\022\316?W%aDz\010\316?\274ZQ\367\277\353\315?b\217\206\334\327\304\315?\324L@\021`\230\315?$u\310\356~l\315?\370\314\231\272\031X\315?\316\256\217\017\3715\315?\031\023\206\364 ,\315?IHX\337\2662\315?\024~\365-},\315?G\324\270\365\242\017\315?.\254\331\322\274\006\315?0\244e\322\026\377\314?\276V\024?^\371\314?;\002\377.H\007\315?u\374p\300I;\315?Y\363A\241.j\315?\253\"\014\236j\266\315?{P{\n\263\"\316?\n\261#\243=\275\316?\026\303\264\363&T\317?\200\327\026\207\373\324\317?\2174q\330\241-\320?\306?M\334\023l\320?\207\222\r\307\232\201\320?\022\365\006\210\027^\320?%\274\247\354\240$\320?\335B\214\024 \303\317?o\276\026\226mW\317?\224\216\203\\\363\364\316?\'#\224\342\326\251\316?d\346\273\301;l\316?j\021^v\340@\316?\3409\371\314\020\t\316?\2706,\304%\362\315?\210\367\223f0\334\315?X< \311\337\317\315?\273\014l\2065\304\315?4\262\274\217\311\300\315?\350\034{w\335\273\315?6\267\005\365t\310\315?O\310@1\301\317\315?\n)\322\014\310\357\315?\272\314\256P\253\365\315?nA\034\017\251\356\315?pDM\255$\035\316?\216\375\030\262;V\316?\216\233\335\004&\212\316?\031b\355\326\317\256\316?\301b\303\211\236\312\316?y\334R/A\313\316?\330\323b~\333\304\316?\344%\322\0228\315\316?\220\251\305$\177\327\316?\324\256D\313z\344\316?\270\356\317\r\231\347\316?\300)XU\302\342\316?\377Y\247U\352\325\316?0\332\023\277\212\325\316?\254_\213\013w\326\316?X\206\371q\202\326\316?T\032\340k\320\343\316?J\322\315\257\372\344\316?\272\232j\235 \000\317?om\270\372w\036\317?\266\241\377q\004!\317?\311\374{\247\004/\317?T\213\353\214\255/\317?\217\341\303\202\201;\317?\340\360\265yy@\317?^\373\215lj=\317?\024\340\005[6D\317?\033\222\222\322\367P\317?\221\324B\311\344T\317?\0101\026\324WZ\317? 2f\304eR\317?\\\016\361\230LX\317?\232\000!d\351[\317?\231$\352\223I~\317?g]\212H\240\203\317?\316\243\226qI\221\317?,|\260\236\360\230\317?\232~\027#\003\232\317?\326)f\357R\213\317?\032S\326\215|\200\317?\324\3374E\314\241\317?6\363\232\r\350\273\317?o\362\276\236m\275\317?3\361\021\2503\264\317?(\037>\215\324\253\317?\353\016n\332\250\250\317?\332\343\200\273\276\237\317?\026\304\316\201\326\235\317?\343.\331\260Z\244\317?\010\226o\362e\246\317?\363\\\242$k\247\317?\266\375\254\253b\247\317?\353I\r+\344\243\317?\220\244\377@\024\247\317?\025}}.\314\242\317?{\252\311\247U\241\317?y\275u\252\356\244\317?\253\3167\220\230\232\317?\036t\265\207Pt\317?{)\322\203\326\221\317?q\235&\003\245\200\317?\253\316\024\201\204}\317?\341\372fQ\216x\317?\356\025\272k9r\317?\207\343\267\360\325q\317?n9\260\177K~\317?\204\336/\'\347\222\317?= \262CZ\265\317?\004\017\367\2041\321\317?i\377)s\370\006\320?\274\010\251\224\004\214\313?\276la40T\314?\002\007\022\346\006[\314?q^H\371\334X\314?\240\303[k\030S\314?\371^\026\357\324W\314?\310\341\r\025UR\314?\375mTI\222W\314?\367\310\031\234\036Z\314?\331\363\305v\250z\314?\330:,e\375\214\314?tuZ\306l\232\314?\320m\250i.\257\314?\231\3219\206\232\375\314?\307\216\0241\357(\315?\017\266\262&\021?\315?\223t\322\235UV\315?\363\377\rN\002c\315?xDd\334\375\177\315?\255R\257\230g\236\315?\210X\016>\336\265\315?\030\32140\013\320\315?*M\277N.\351\315?W\327\250Tw\017\316?\n3\303\377\2033\316?\275\352\037I\353]\316?\232\324Q\207u`\316?\\v\324\r\036j\316?\327\177!\324\332n\316?\2119\316\216\320f\316?\203\261\232\273Q|\316?:\307\023P\307t\316?\321\272n\223Od\316?v\265V`:@\316?`\230\266\371+\326\315?\226a\300\270r{\315?I3\227\315|D\315?<\250\207\022t\016\315?\304L\3472Q\336\314?\037\003\276JZ\313\314?WK v\275\254\314?j\350\336D\246\234\314?H\025-\217!\177\314?\226$\004\350M~\314?\025\237\303\373\370k\314?\345V\311Fnm\314?.\372\337Q0Q\314?\365m\310\014B#\314?N\205$%\320/\314?#ig3\257,\314?C\273\330\356\375Q\314?)]\016|\213U\314?\331\374\2700\344n\314?+\315\314\035\024\214\314?\3533\273|X\240\314?\322\215\217\232\237\260\314?Ym\313n\320\330\314?0\037v\312\226\361\314?\373NT\265+\024\315?\324\314\377P\325)\315?\227\202\177[\301@\315?\316h/\313lJ\315?y\270\304a\316K\315?\360^q\025\344W\315?\246\377\320\277ii\315?@\361)!\324\\\315?8?V\324\206a\315?\242\330#77d\315?\250\304\274a\267\\\315?(<\376\221=P\315?\216i\207n\337+\315?A\244\247\024\260\'\315?\375\355M4\221\027\315?\002\246\302\216\265\365\314?\231z;\2241\326\314?\352\3749\327\300\256\314?\206j\020\007\205\230\314?\302/j\001\036t\314?\203\364\252T\244P\314?T\357\205\326~C\314?S\266\221\260D\'\314?LR\020q\260\r\314?\234&1\335+\000\314?\317\304\256\314\337\355\313?i\200\245\317\033\342\313?u\007\244\t\203\316\313?n$M\337\022\320\313?L7&\027\245\274\313?\255\202\212=\303\272\313?\245\271f\tj\254\313?\241\211\272S]\247\313?b\0273,\300\243\313?\241/\362\357\211\256\313?gW\2219\345}\313?\325\326\030\014_s\313?\313\343\330\226\333_\313?\274\256\200\276\004Y\313?\214\314\240\375\357X\313?%\\\356\352Z]\313?^\271\372\213\202[\313?\341]\306\376\306_\313?\302\022\373C\264O\313?\371,2\256v\\\313?\202\331N\245\260\\\313?{%B\203Je\313?\363\027\037\013vh\313?i\257\253\272(i\313?\223\265\341\013\356b\313?f\030D\222\303a\313?\024\337\300L*F\313?\245c\374k\341H\313?\212:\374\000gS\313?xWE\321fI\313?\242sQ\t\\R\313?\224g\323\0332A\313?\361A\327\327\035?\313?\275\036`nv2\313?z&\357t\3134\313?C\312c\216d\035\313?.\020\305c\215\032\313?5\n\007J#\t\313?\323\251\315-\344\371\312?Or\\\315\007\362\312?\345\350\262\027X\347\312?9`\231\257y\362\312?\361!\260\213\005\362\312?\367?(>*\375\312?l\031x\007\333\374\312?\347g\" \352\364\312?6\023\224!\025\346\312?\250:\322\203\374\330\312?\006\376>\203P\325\312?\331U4\025c\322\312?t\300\246\265\006\302\312?$\206\316\177\320\271\312?\265\001\rs\330\266\312?\032\027\336JN\244\312?lox\300\303\224\312?\3126p\007\352\224\312?\375\267#\200\301\214\312?\201\024\344\203x\206\312?\263\324Y\261\350k\312?\361\252\336L\022l\312?&\223\237\311\010l\312?\244\202\244\376ci\312?\030Q\262S\256[\312?h\002RVdX\312?\304\007\355\n\272S\312?G\274V\361/J\312?\270s\202\262\000X\312?\303\026\033\360\202S\312?\311A\231\336\257V\312?\350\352\323\231\227]\312?\322\200[&\254U\312?\206\3329D\021O\312?\014\271)PQV\312?\370\237%]md\312?8\0364\007}s\312?\014\303pC\306\202\312?\341\315\'\346\261\212\312?t+r\362\234\231\312?\033\245/\252c\232\312?q\232\207\021\227\243\312?\035\266l.\260\247\312?Uo338\254\312?-\376\216_z\246\312?\250\"\226F,\237\312?h\037\027\024\207\245\312?b6\032#\206\233\312?<\252*\314,\226\312?\323\006A\366c\233\312?\255j\300U\333\243\312?m7\262\014 \245\312?m\324\037nB\262\312?\347\312+\315i\263\312?\360\203!\342N\270\312?\352Q\317\272\372\274\312?]\366j\316a\301\312?\304Ej\261F\303\312?S\300\020N\030\310\312?h)\245\334\207\300\312?\215`4Bw\275\312?\255\264\'\251\225\307\312?c\265p\216w\335\312?_\007a}\"\340\312?hG[\251(\335\312?Aqe(\245\342\312?T\300\255#]\337\312?D\221\031hq\330\312?Z\207\267\217[\332\312?\007V\003\004\333\327\312?6\364+\2529\321\312?Q\255\002\330\'\320\312?Jz_/)\313\312?\315\250\357\270\205\307\312?\315\360\205\032\234\300\312?bx\311X\235\267\312?\246B\341X\274\275\312?`\257n\304\254\272\312?\346\253\3258J\307\312?\252\313\374\177\251\332\312?S\013\263=k\330\312?\306\032\335*P\327\312?A\013]\027\353\314\312?\241\252\266Y\304\311\312?^\257bQ\016\357\312?Y\t\367yu\026\313?\301b\310BX3\313?\311p(\273\032R\313?\327\"\251R\241d\313?\355\024\323\316.t\313?\227\233\373\355\343\217\313?P\r\231\312Y\232\313?%N8\005C\247\313?\034\351?}a\270\313?\321\345\276\266-\263\313?\267_P<\355\304\313?\3729\364\314\201\324\313?\026\264Lc\324\345\313?X\304\275\355\232\364\313?K\216\020%\'\001\314?,\362\273N\302\003\314?\035\247{\254\377\004\314?%3(\344\224\n\314?\023\025\024\200+\013\314?\177\274\013\037\007!\314?k\n\205\204\377\237\313?\206\376%\203\205N\313?\212\030\346lP\'\313?ps\251\230\352\014\313?\2246_i<\370\312?\312\0361\022\213\354\312?\265*\301\226\342\340\312?\353E1\234\022\340\312?w:\210\204\214\323\312?\372i\343U\304\323\312?I\024\241\253\211\322\312?\272\r\254\333\207\331\312?Z\232G=\305\343\312?@_\367y3\372\312?m\212]a\025\375\312?]\360\033\277\355\022\313?G\305-V<D\313?e\304\027\203\rc\313?\035\203/\373^\213\313?\334\"\010\016j\252\313?\277#\275\267\010\335\313?SJ\257\235\215\364\313?\207A\347\325\003\035\314?\325\007<wU<\314?\026\367\267\265\231K\314?\333\031\253o\216j\314?\234\305\363h\226\203\314?\350\031\211=\245\244\314?\002\250V\035A\303\314?\300XB\353\237\357\314?>F\302\274\234\031\315?\343\023\001:\013<\315?\377\312}\204\367[\315?h\276\326\347bz\315?L\366-E\202\301\315?\216\234\352h\323\323\315?\236\315\245\026\034\356\315?\303t\274*\231\341\315?\010X\374\275L\310\315?l\342\226\357\026\321\315?,F\256\262\356\323\315?\265\262TI*\364\315?\355\005\243\350::\316?\233\372\304*sm\316?9\272\325i`\210\316?jz\315\316I\177\316?r\n~]~\216\316?\314.@$AM\316?HZ\314\375E8\316?r\256$#\2566\316?\206\355\352\377c;\316?\001\314\274\"\346<\316?|\307\351\036\353?\316?J\n}\307(C\316?ot!\230\233V\316?\035\337\244\212^]\316?[\364v\315\251y\316?\317_\341W\276\204\316?\336~z\345\332\215\316?\036\255\263\037\376\241\316?\375\334\320\224\235\276\316?\021\267pD\352\002\317?\031\375TT~\213\317?\234\341\371Q|\330\317?\304\266\301`i\006\320?}\254\212\267h\035\320?\204\275!>\304\'\320?\232XZ\362\352/\320?D\214\312\222\2503\320?z\001h\'\222.\320?\251A\301Z\3576\320?wb\023\357\2719\320?\341\312\237\220\031?\320?\037\034L\3008C\320?\347n\036!\337R\320?\3104!M\277[\320?\027\353I\320\307k\320?7\377\034\327\240~\320?\217_\r\212\305\223\320?\315.E\335\372\225\320?\276\032\257_\001\243\320?\241\330\024\014\n\252\320?\002*8\226Y\277\320?\007\257\220\313\025\304\320?<\230\257\363\270\315\320?y\371\245\227{\325\320?-l^\271\004\336\320?\006\244\341\272\200\334\320?\214Z_\3713\351\320?\336\276y77\342\320?\024\004\023\250\223\346\320?\030\330\024\334\320\363\320?\275\027\314P\366\345\320?7\277\304\314\374\362\320?\334\036\020*i\354\320?2\210m]\372\357\320?\327\232H\221\376\334\320?\355\247\326-\310\327\320?h:\272\230\006\310\320?\206\341e~\034\312\320?j\226\311E\274\302\320?\342\224\271\371F\264\320?\t\'\026\266n\234\320?g\317r\224\024\234\320?\323\225\247*o\222\320?C\014\tR\010\210\320?F\331\341\003\311\210\320?\201\307\0200U\221\320?\271#\326\301E\227\320?x\311\273\307\362\236\320?\261\006\234cH\247\320?\212\274\301$P\225\320?\030b%\201.\203\320?\2320P\010\323f\320?Z\361TZ[E\320?\372\t\232\250;\325\317?\031)\003#\t\244\317?\231\324\342\351\033l\317?\346cN\002a\010\317?\362U\014\006\300\300\316?\030iB\220\014\204\316?\255\024j\2349c\316?\200n\031\204zy\316?\245\262\351\207_\221\316?1\2749,rg\316?\231[8H<$\317?\037Q\212\036D\'\317?ha\320\273\021\023\317?\256\t\253\251\023-\317?\242\354-\345|1\317?\002\300\375\365\024=\317?f\022\360\311\225J\317?vr\254\2511C\317?I\307|\020g]\317?\202\004g\0360w\317?\237\033\327\025\354,\317?rp\315C\304\322\316?\r\254_\300\375F\316?\374\350\246]\344\317\315?\236\320<\227\341s\315?Y\367{\241\001.\315?UI/-\224\023\315?\247\312l\232\273\371\314?,W\332\n\343\354\314?\203\246\365\0340\306\314?\356\007~LR\266\314?i%\325\300T\310\314?1\364l|DQ\315?\t\r\016@\264\340\315?\325\021\350\225\260\213\316?}\031\304\273\347\366\316?\022N\371z8-\317?\0335\250\373\325c\317?\315\215^\027\302\215\317?[C\210\257\237\323\317?\010\307n\227\344\335\317?L\334\033]T\364\317?\270}\311\245u\004\320?6\215\t\013\320\021\320?\363\336l\001\016\022\320?y\037\216H\360\023\320?\035\372=\235j\016\320?G\225)2\257\r\320?s\311\345\375\207-\320?D\254\361\336\300`\320?\354$\270\027\354T\320?X\302\3064T^\320?\233\260\353\201\320F\320?\247\345\341\346O9\320?\177\027\273\037\3457\320?v\235\340w\3407\320?\213\007T2\0227\320?\332\361\323v\033-\320?H\240\255\302\347 \320?\252p\231\r\021\033\320?$\237\371\312\363\010\320?cs\255ty\336\317?\253\354y\006&\332\317?\013\315\323\213j\t\320?\344\357b\212\007.\320?\244\002\311i\277=\320?\034?\3546\274A\320?\341T\030\031\354?\320?*k\037\033\026=\320?;w\312\211\307<\320?\177\266\003\345\036A\320?\251(O:@9\320?\233\205\335z\304=\320?\320\210<\303\2007\320?\262\326\222\206\001(\320?\033X\221H\020\253\317?HM\375\2648\200\317?\237\255<\2561[\317?,j\370bdS\317?Y#\377\357/R\317?<o\2163\200I\317?\365tR\270N>\317?y\303\016G}0\317?D9\243vW\'\317?\016L\367\005\267\037\317?\230I\026(\020\023\317?=Z\203\224+\376\316?B\342\223X\226\013\317?\022\001)\337\243&\317?\3732S\205\377g\317?\n\374\251=a\223\317?\300\307h6\362\255\317?}\237:\356E\310\317?\2505\310\202\224\350\317?\260t/\021\036\326\317?37\024{\276\337\317?+\272X\305\331\274\317?\215\255]\226S\233\317?\232\026\231\331\027k\317?\355\303!\353\016A\317?\277\211[\344\"\'\317?\020\"\3518V \317?\r\272\003\303Y\324\316?x\007\311\031\302\245\316?1\377~\267\224\201\316?t\t\255\245\205\355\316?\352)\315A+K\317?\311\252)E\002x\317?\004\023\311\241\217\003\317?\006+N\265\026\246\316?\017\232\360Z(j\316?%T\006\224\241x\316?\"gny=\274\316?\211\031L\211E\010\317?\363\372YMS[\317?\340\020\034*\325\244\317?\316\023\232\3472\274\317?\374\206\306iA\325\317?\215\357j=l\367\317?\'\220\363\255\370\016\320?r\003\214\316\374!\320?Hv\337\020.-\320?H\000\251\340\377-\320?\322\020(w\254-\320?,\022\265b\357-\320?q\327x\324\213&\320?\306\2300\244\007!\320?^\244\"\336\322\033\320?\337\227e\025W1\320?\002\0367M\266\031\320?\312\213\344\334:\300\317?~\022\375\254\302>\317?\301U\217\025\253\357\316?\340\250\226&\005\223\316?\023r\236\344 ~\316?\257\2258A\207x\316?\357\240\300\330\316y\316?\0206j\365=y\316?\376\216\241\226\370y\316?\314f\367\254\267\202\316?\237^\332\204<\201\316?\365\372\337\206\"a\316?\236\250\031\020)\337\316?\227\217\244\244\207A\320?\346S\377\324\003\\\320?/\3754\266#Q\320?\013\346@\363_>\320?\365q\031\251\2128\320?\305\325uf\2122\320?s\332\203\253d)\320?\340\236\274\317\276 \320?i\223\334\304=\024\320?\337\242m\3363\020\320?V\\\330w\236\010\320?s\207\020\001\316\005\320??\010\\\262\205\373\317?\244\201\030\033\314\374\317?\004]e\347\031\355\317?\314\207D\372\035\345\317?\204\356\004\216\023E\314?,\370w\372d,\315?\222\223\257\"\250|\314?\275\010]\006\2774\314?\360\321\207\323\356\374\313?\246\362C\223.\267\313?U\000\r\350\345m\313?\244\217\306\217\233\033\313?\305\2379\317\376\336\312?\325\366\327t\002\257\312?\003f\247\347)g\312?2<L\264\0213\312?cb\370*\'\021\312?\371v\304\201\215\364\311?\213\227\t\347\234\335\311?\026\034\230\273\032\311\311?\221\352\321\332\210\265\311?\213\023\222\336\315\231\311?\204\253\321\345\254\223\311?\344\232\206\321A\221\311?0F\037Qs\202\311?O8\017\265\332t\311?+D}N\036o\311?(\367\233\2061t\311?$)+~:{\311?\304\032\025\325\256\213\311?+\037\177\362B\275\311?\377\360\244\231\257\021\312?\212{TE\266\210\312?\327J\343u\317\n\313?U`\320[\237f\313?\3425\245x9\305\313?\271^c/\305)\314?m8\006FY\235\314??o\336\303\033\025\315?\275=\022sld\315?A\305\'S\273\225\315?\273_&\006X\326\315?\006|\273{9\031\316?[8\241\364\253W\316?\212\244\013!Oa\316?\034K\241\361\031\220\316?\302\237\356\367\034\274\316?\265\254\310\326\235\250\316?\314\351\214\3215\261\316? \370\025\364\251\246\316?\351].u\237\202\316?.m3sSS\316?q\272/\336\304\r\316?\340\217\323\276V\325\315?w\336QY\320\230\315?\330\253]M}d\315?\240\213t\251\213@\315?;\346\222c\030\033\315??\243\220>\217\014\315?\277|\316\267\347\364\314?\001sv07\337\314?\360;\317\2355\277\314?\232\223Y\265R\245\314?co\243\255\274w\314?\210^\273\276Sd\314?\275+\212p\366;\314?\037\252m\3467\034\314?\277\364&!\271\376\313?\336.1\037\333\365\313?\253p\202q\233\351\313?\250\037\203\376\n\345\313?\3411HiR\344\313?\365a\324\355\240\335\313?tP\345[\357\334\313?\303\324.WS\332\313?\257\300\377r\007\323\313?\322\377\230\364\374\313\313?\204G\256\252}\313\313?\374;\255kL\271\313?`\2470m:\255\313?\356Yj\314\n\226\313?Dk\352\341p\213\313?g3)3\025\212\313?\204\021\204\366\255\200\313?\316=\027R\355o\313?\361?\314:\360e\313?\016\262U\027*^\313?2\345d^\036]\313?\322{:\211\316S\313?`\212\027\260\2111\313?\204z2\263Z\026\313?\205ug\0266\375\312?\270\336M\357\226\357\312?\024\270\361\376\252\351\312?\033i\026YL\333\312?_\001\376\211\307\316\312?%1\2468\305\345\312?\017T\031\010\372\362\312?\236C\351pL\r\313?\200\355\216\374)$\313?\316\2134m\326K\313?\210868\232n\313?\273\234Y\345\036\237\313?\374\342\374\224\375\317\313?\267\3257&G\336\313?\343\262\341\033\320\363\313?\276\341sd;\030\314?\263\214\261l\026J\314?5\274\230\347:m\314?z\336%\"\020p\314?\364t\331\250\201x\314?\252\254\2454&z\314?\353\020\261!5v\314?\330T\035?Bw\314?\370\314\205\3262u\314?ekR\021tb\314?\371P\014\n/s\314?\314/\302\225eh\314?\272UJ\256\346i\314?\250\\\270\336\374g\314?n\354D\017\235Z\314?Z\264\325\354Ne\314?v;\000\204=]\314?+\235+$B^\314?\213\231\342I\211_\314?\243\373\317 YN\314?\233\363\216~\364@\314?Z\335\233\363\0248\314?p:H\326\2016\314?i\336(\264\327;\314?4\233\324\2132?\314?\005~n\027\203O\314?\243H\255\346\357T\314?\204\364\201\325rV\314?\347\0277\313\353\\\314?\234\206@\337*P\314?\341\036De\325=\314?\214\347\316t\370)\314??\306j`\234\031\314?~\306\016\365~\r\314?\321\200\034\302h\376\313?.({g\216\316\313?\006\004\177g\227\311\313?\'s6a\036\331\313?NJ\336\214\334\313\313?J\256\346)@\316\313?\331fI\321\341\331\313?\330]\214\300\331\337\313?\253\200\367e\233\341\313?x\201\307\364\332\345\313?\231\323\225j\307\326\313?\344\205\225\206\361\305\313?)e\267n\001\243\313?EywHW\207\313?\322\311\001\244\376\206\313?\232{\030\277\310\202\313?&\350\362\220pt\313?\372(\002 \027j\313?\256p\223\235\363]\313?\3326E\255TC\313?\216z\026\361\216-\313?\273\363\020\002\374\027\313?\261\216\0353\324\021\313?y\266`\014Y\033\313?c\273\030V3#\313?g\223\034\340\344\037\313?\252CH\277x$\313?P`\210<L2\313?\305\033\016Uu2\313?\230ekW\312-\313? E+d\237!\313?\255\332eZ\303\016\313?`\363e\372\t\r\313?\271\325v\212\212\365\312?2\003o*M\350\312?l\200~Q\025\342\312?\2501\027t\037\331\312?`~(J\242\324\312?\244\032\320\264\277\321\312?lj>\206E\307\312?\212\230m\002g\304\312?\023\344\031\224f\274\312?\336oz8\375\260\312?\371\2730\377\014\242\312?%\361, 8\227\312?\025\314\005\037d\210\312?\271E.r.\211\312?VBQ\202\371\211\312?\220\335\363fN\203\312?\315c\346e\301\202\312?\376\334:y=\212\312?,\326\376;\223\227\312?+\356\000\316\331\242\312?]\310\033GI\233\312?\2248?\206\r\235\312?\213\346J\002\251\224\312?\365\361\342Zs\233\312?+\334\227\330!\243\312?.r\032e\247\246\312?\013\263\r2\202\263\312?\035c\354Y\027\304\312?\243O\232\274\267\330\312?\2662]_V\356\312?\335\246\204\317\362\026\313?\006z\321\354\364\"\313?\000\277o\021RV\313?\364,EH\226y\313?B\263\225\336\321\233\313?\351\331\341\354,\263\313?i\n\036X\356\302\313?4sl0\031\266\313?\246zt\033\273\241\313?\273J\213\273\300s\313?\032\033}v\007K\313?[`\265P72\313?\335\340 .\364\031\313?\226o\023t\317\010\313?E.\204\021\005\367\312?\230\266\231\271\251\t\313?\301\251\017$\357\034\313?\312j\217\036\214\006\313?\203v\027\300E\373\312?\342=\244kh\373\312?\035\327!_\213\333\312?$\034\236Q\377\310\312?x\004\247\246s\261\312?\335\221!/\272\250\312?1P\204\232B\243\312?1\327#\206}\270\312?\313\205\203\352\n\251\312?\377\204\"\371$\231\312?@t\326\341\307\234\312?L^\244\035%\231\312?N\345\354QC\221\311?\271\263\334\275\317\275\311?z.:\366?\302\311?\227\335\366\261@\303\311?\242\322X`g\301\311?\312\211\ty#\304\311?\024?\267\261\210\312\311?Jw\254Y4\313\311?Q`\241\331\354\275\311?R\236y9\354\276\311?E\362\3101\357\267\311?|a\2328\245\273\311?\235\355P\233\330\306\311?\000$\022\006\027\313\311?4\343t_\274\311\311?\332\322z*m\322\311?\2614~N2\323\311?\312\350\"\263\352\333\311?\356t\335\027t\333\311?\005Q>\327\323\333\311?\331U\307x4\330\311?\324\355pd\263\335\311?\021\332\022\274\230\333\311?\032\275\'\3126\324\311?\275S\253\366\203\326\311?\264Cx\213\362\322\311?cB\350z\204\325\311?\335,w\311\254\334\311?\325wN\030l\341\311?\324\r\276wn\366\311?\216W\331\244\306\367\311?o\3638\237I\001\312?\312=\307\301Q$\312?7\242\256\307\332%\312?M\243@\324\272#\312?I\321\242\365\362&\312?\2557\365wr*\312?\317\265\251fH(\312?JZ\010\252\372 \312?e\343\027\027t&\312?\260V\355\232\220\026\312?h\r*\346*\032\312?\231-z#\312\t\312?\256}\"\313Y\312\311?\364\262#^i\234\311?l\320\350%\376\234\311?\217XN\354\350\222\311?\037.\350\246\225\216\311?Io\362:f\211\311?\220\320\236\344q\205\311?+wvdr\213\311?Sg\0211\365\230\311?m(\221QY\245\311?\303\303\3347\274\265\311?\243\261\034?Y\323\311?\357L\243\364E\365\311?K\014]\344\371\'\312?2\201\317\315\0062\312?\206\277\306\370\247I\312?\016\027V}\360R\312?Rcw\276\365Z\312?[x\022\234\360N\312?\213.\005*7_\312?\232\230\376\212\324r\312?\336\253V&\374\222\312?V\323\256oK\227\312?\204r\306#\375\245\312?\230n&g\247\355\345?\013\301r\320\232\251\312?\320\273\266Y\352\300\345?\245\037L\013\020e\312?\322*e\3376\177\345?\3322\246\201\233\034\312?\010\024\r\3717\r\312?\320\217\216\304.\376\311?!D\302\217\033\322\312?1\353\370A\363?\312?!\311\247%(\016\312?*<\242!g\n\312?Bxh\343~\003\312?\231\013\3629\313\372\311?\363\225\354J^\354\311?\027\002t\3600\323\311?\261\347\000\373\307\306\311?\002i\004\275e\276\311?\343\005Z\177 \300\311?\224\036X\036<\304\311?\226@\330\226\362\273\311?\232\242$p`\274\311?\364\355_\204\351\256\311?\334\"h\200\226\244\311?\335\340dK\361\231\311?o\331V\3601\221\311?Q\236\273U\276\204\311?\362D\335\365<y\311?\363\0268nkj\311?\037M\241epc\311?a\t\246\305\331g\311?G\376r\303u`\311?,\334\333\365\036c\311?\247\340\305\002,`\311?\365\327\276\217\211e\311?>\"\270\'\316e\311?!\021\205\\\312u\311?\302;B\313\217\177\311?\341lJ\344H\210\311?\322M\266\017\346\247\311?Ny\247\024\321\265\311?\344\215R]N\266\311?\"\013\214M\017\260\311?\366\337\304<\235\276\311?{\242\334\227\342\323\311?\274M\035\203\314\320\311?-PF\355b\300\311?n\005\262v\222\257\311?n\212U\360\314\245\311?\311\226s\226J\231\311?\244`:k\277\216\311?\321lw?\t\224\311?3\346\302\t\313\246\311?\322~9\355\010\253\311?(\264QBU\261\311?\000\007\030V$\270\311?\213\3049\'L\321\311?\020-Y\345\247\320\311?\315\"#\206n\315\311?\201_\363\017\372\320\311?L\006\357\307\307\320\311?ni\337#5\311\311?\211\032\204mO\306\311?\222IM\210\247\301\311?^\240q\317]\314\311?\316\003K\272\325\317\311?\302o\231\214\220\245\311?\247\272\272B\243d\311?e\376n\r\2561\311?\234\352\354\013\270\014\311?8\320\t\302\221\327\310?\320\207\205_\214\266\310?K\004\2578\312q\310?\202x\251M\246N\310?\203\256\207s0B\310?\217Tm\244]&\310?\302;\361\203\220\377\307?\335\272\366`\255\265\307?b\302\242\001@\276\307?\323B\260G4\303\307?LNK~T\333\307?C\371x\244\236\336\307?K\205\t\207\004\352\307?\2002\361\0076@\310?\001^\200,-k\310?\265\216|\356\234\227\310?\370O\360zT\257\310?\261\232\322\3551\300\310?\360\245\317\222\360\322\310?\227a\t\217)\344\310?\"\333\217\232\312\360\310?\261\267U\217\202\007\311?\214\340B\310\300\024\311?A\311^\233\377*\311?\320v\313\\\200@\311?U\276\033\226\374K\311?:\301W\244$L\311?\373K%\030\333_\311?\261v~\313Ho\311?h\264Cf\250v\311?_\213\326\204\306i\311?XN\221/\340f\311?\367\323\n\311\205g\311?\225G\360\354\026t\311?$\"Z\375\241q\311?\264\360dS\210i\311?=\263\376x\252a\311?\004d;!l_\311?\352#b\335\207b\311?\235PK\035+K\311?\367:X\350K;\311?\360Y\215\333\0363\311?\351\345\257D+-\311?7\243y\017\266)\311?\222\334U\240\372-\311?\241\222=\271\3332\311?]\346\215\366\3547\311?w\017\301R\0149\311?1\356\032\265A4\311?9\t\342\222\2349\311?\347\225\241\340\0308\311?\230\233\276\212\3132\311?GM5_\2274\311?\366\"\264\307\0060\311?\335\017\342D\240,\311?\240\346\0318\366%\311?zX\221\231W*\311?\226\177X/\271#\311?\010)@`Z\036\311?\001\242\351\267r \311?\301z<*\207!\311?q7~d\027%\311?\360F\310;\345#\311?\021d\341D$%\311?\246\2170t;\'\311?\260\313\026g\021,\311?&\363F\350\222*\311?{&\376\237\370.\311?\n\244\371\240\2753\311?~\336\221\007\3335\311?\272\027:\244\2104\311?\037\333\251\356\3160\311?2E\303\246\3612\311?w\217x!93\311?\323\326\014\231\300\'\311?\033\307fLc)\311?\033\367\353\360\005\035\311?L\230@|&\034\311?#G\356t\335\027\311?D\355\344\367)\023\311?\207\315(\3371\021\311?.\314m\273\003\016\311?j{+z\366\010\311?\323\202z\247\300\021\311?c\240c\356\367\027\311?W\033k\230\004\034\311?\211\336ec~\036\311?\305\367[\301\212!\311?#_AN##\311?\333\270\315m%(\311?knJN-(\311?\004\307\310\006\220)\311?\312\330\221i\273)\311?\267\201\306B0+\311?w\224\"\260t)\311?\004+\n\230\031&\311?\2544xK\261$\311?\325^I\224\353\035\311?\350\360\035\360Q#\311?S0\3105\274\033\311?+]\345\374Y\033\311?n\224\234\343A\022\311?\245xZS`\016\311?\345\023\376\201|\r\311?\262\026\251t\323\r\311?\221F+\025Y\r\311?\241\010\322Z\013\022\311?*\360qMQ\023\311?Eu\245+\371\024\311?a\026\2049\024\032\311?\376\350\020B\204\033\311?\2734\"q\277\036\311?h\030\331\366\277!\311?\020\027\021\251\217\036\311?[z\246*|\034\311?{}s\240\003\"\311?\035x\020\226\014\033\311?\215|)\377\004\036\311?\244\243\306\313m\027\311?`5\'\023\335\021\311?N\300\031v\304\023\311?\004\202\025\264\204\r\311?\007\216\\\033P\r\311?B<3=8\n\311?\005Ls:\257\002\311?Xp\303\030&\r\311?\236N\022H\022\017\311?\214\357r\256\264\016\311?\035+\204\027u\024\311?\252\265\nDJ\021\311?\220\3016T\037\027\311?Ru\251\300\262\032\311?O\0130\274*\001\311?d\202\000j\201\365\310?\357\276\225\262-\277\305?\016]\210\211\221\233\305?+\251\001\355\210\257\305?y\254j`\343\256\305?b\357\024^\301\267\305?\210z\226\'\335\304\305??Y\037ya\327\305?T\340\326p\240\346\305?\3548*\251\246\363\305?\341\312NI\032\377\305?a(\203J,\016\306?\037es\276\240\021\306?\365\221\010KD\021\306?}|\235/Q\030\306?\177\251\033\377p\035\306?K\340/\226\204,\306?~8\236\210\253.\306?\304\222\303>9>\306?$\210\244*.M\306?W]\025\025bO\306??^\376\371lS\306?\210\001\001!HT\306?_\004\225\n\215T\306?\276[\235\277\260L\306?\2223.\313\300I\306?T\261\301Zf%\306?\n\322\"a3\016\306?\337\016-\342\326\005\306?Wd\336$\262\001\306?l~\2364D\375\305?\177h\261\327e\377\305?\332\343\224\237\245\002\306?\315\270\246\311W\005\306?\217\216\212\203t\006\306?\022e\370\032E\000\306?\027\366\310\247F\366\305?\324\315\254BV\371\305?\034\222FD\262\371\305?\227\234\311\355M\002\306?\255\265\312(\243\005\306?\211\242)\003S\002\306?r\310\032\266\254\t\306?N\024`\331~\022\306?\255\027\023\000\273\021\306?l\335\257\375\302\375\305?\301=Kg\222\336\305?\n\014\3132\323\334\305?CV\311]\n\343\305?\334Ku\\\350\345\305?1\337>\316\333\350\305?F\246\324\t\216\351\305?X\206\032\200k\271\305?\361^\260y\'\257\305?\350\014\272\364\227\254\305?\377xm>\307\252\305?\241\317\010\265-\252\305?VKo\274\221\262\305?\004-\302\354\034\305\305?\243\220\326\253\327\323\305?O\357\347\266r\346\305?\226?\211\026s\354\305?*\324\022\254#\347\305?b\023\316\253\220\353\305?_\"tV_\353\305?\330\240\272\257\206\350\305?Yt\321\3418\350\305?5xZ\334Q\354\305?\013Lj\022\003\367\305?8\014D!\222\371\305?\026:V\371\003\375\305?\303\014\360Q=!\306?\247\327\354\234\364+\306?(\031\274\214\2731\306?\216\031\035\232\3660\306?\364\231\031!/0\306?\036\242\205\217~7\306?\230a9\310?A\306?\237\026(\316\366M\306?\327\227\244\3466W\306?F\206\272\347w\\\306?\336\340\035vek\306?\220\273\\R\"z\306?\337\361\007\262\207~\306?<)h\232}\214\306?,\205)\222\373\222\306?#^\241\206\244\223\306?\377\376\215pl\223\306?R*7\nv\247\306?X\306Q|&\302\306?\277\337-e \334\306?:\203\245\013\310\026\307?5\004\343\272\013O\307?\324\025R\317\231l\307?\317B`\267\230w\307?G\263\233\341R\312\307?\210\203\332(\030\371\307?\334@\332/:\001\310?}\235\253\030t#\310?\355TL\347\273B\310?\231 \234\257\217\027\310?\021\003\372\320G\021\310?\204Q\227,\361\367\307?q\227\341e\244\343\307?\270\016\262\205P\300\307?\236}\221B\354\233\307?e\274sIQ~\307?\"\276v\335\031u\307?_\n\017\232]w\307?P\371\3229\021\215\307?O\\\177,\363\277\307?5\207H\246s\340\307?i\374%V\004\007\310?2\232\263C\236\022\310?\033\031?\3504&\310?\306\227\315?\241.\310?\0001\377\244~7\310?.h\221U`4\310?t \346\360\033/\310?\321\337\266|E3\310?D\207\322t\374+\310?,\335U\366\372&\310?m\271\327\2425!\310?fY\372G\024\027\310?{\257$\360\274\021\310?\205\023\025\315\252\037\310?~\n\025V\t\032\310?hy\266\370($\310?,\301\252\306\207#\310?\331\n\021\245\372$\310?\307\341\311\367W\322\307?9\247\304;\341\341\307?\336}#\364\022\347\307?\021\017\3516/\356\307?)\033\016\377t\371\307?\227nf\202N\371\307?C\262\250\321\251\000\310?\324\213\300\251&\000\310?\217)\321\3629\000\310?\235x\326\207X\361\307?\3411\314\241\366\357\307?K\367\267\'\357\363\307?1N\300\322\240\370\307?\277\376\276[-\353\307?\310\027\226:&\335\307?\255\275\304b\030\323\307?\371E\317N\202\316\307?z/\034\332\220\327\307?u\230{\275\005\326\307?O\323\302\300\316\350\307?\370\262\025}\003\350\307?\206\372\206W\314\347\307?^{\367\253&\346\307?h\2454\216\235\337\307?G\2711\306R\347\307?\317\035\026\315w\356\307?\324\370\364\364\353\360\307?H\224#\210\346\006\310?\320P \017$\377\307?\256\000 \323L\312\306?_\346WM\271\275\306?\336\001n{Z\274\306?\315xo\315\234\274\306?\003\272\277\022\371\302\306?j\nSJ\276\310\306?V,\026p\343\327\306?\274~B\357\355\323\306?\027Y\261F\335\321\306?\335\025Z\323E\325\306?\031\344\306\336\237\323\306?\330\214l\344C\333\306?P:\2046\250\331\306?\2758\211\362\031\321\306?\253B\010j&\317\306?\235\276;\205\236\305\306?p\231\177f\243\302\306?\232.\022z\000\302\306?E\206\212\256a\277\306?\231]\360\234?\303\306?\005,p\264\016\307\306?B\235a\206\240\314\306?\251\275\353\340\036\323\306?\013BI\3460\326\306?.s\231\036=\323\306?\245^R\335\245\322\306?\3110Jw\247\340\306?\270\311\272\025H\344\306?\340\245\374\355\260\336\306?\016\334-;W\343\306?T\002\021\313.\344\306?\257\273\350G\235\342\306?F\372\330Pv\342\306?\013jS\320H\337\306?\022\022\205p\256\334\306?\266_\234\3122\334\306?\273\3561\201\360\333\306?\217\277&\3767U\306?Z\266ZP\2558\306?\3700\270<\2177\306?\353n\212\006\2528\306?\343\207WMh6\306?\261W\227\324\2027\306?\312Q\3676:=\306?X\026\361B\337B\306?s\370\270\367\357H\306?\361\356L\221\021J\306?\216M*\316\3349\306?\304\'\344\035\274C\306?\305d`\32395\306?)\024Oa\230\030\306?\355rG\210\275\023\306?\217\253OA\227\023\306?\320Ts\254\227\016\306?@\347\376\202\216\352\305?\t,\377\250\355\351\305?\260\272O:\003\366\305?\177g\227I\266\365\305?5\036\203MQ\371\305?\3609\035\271O\375\305?\207=R\034\276\007\306?\326b\035\262t\n\306?(\000\001\226U\013\306?\266)0\372\220\013\306?\316 fx\261\005\306?\016\n\3333q\t\306?\026\242\035\031\246\024\306?N\036D\2428\026\306?V\204\320~\372\010\306?\231\324\177\277`\003\306?\032]x:d\376\305?V\206\205\033o\371\305?\006\336\255R\230\374\305?J\267F\200\252\374\305?I\027\204\272\224\357\305?\0102\005\342\252/\306?\307%\313\237(6\306?N3rP\241>\306?\262\251\244b$:\306?\274\332\02075=\306?\270\340\2206#=\306?\3239\021\215\206=\306?v\202V\220\001A\306?\352\240C\307\253?\306?^p\330F\3245\306?n\323\351\212c.\306?\377\345g\336\002-\306?cM(\356\277(\306?%\323\333~}\035\306?\266-\270\211\324 \306?\003\177\312\301\004\037\306?v\010\363\211\002\036\306?q\364\325\2569\"\306?u\235\265\367\203#\306?\251\247a\2104\033\306?\213\363\031K\266\014\306?\"\331w\323\232\027\306?\035\321w\226\244\033\306?\032\321\272i\332\025\306?4<7\031\307\033\306?\321\350\374~\253!\306?\340\353\231\225U\'\306?3\241\356\250\326\'\306?\211\240\365\346\363.\306?Y\2208\364\256+\306?g\371\255\342\374)\306?\177\211W\335\0239\306?ZG%\332-@\306?\"\tj\024lE\306?\362\023%&J0\306?\362\000\225x\340&\306?\251_z\337\036\"\306?\263\364\314\213F\020\306?\250\004\262A\240\037\306?^\364\316\316\215\034\306?\374\343\321NL%\306?\235]\264\203\356+\306?\227Y0c\2359\306?\253\222\344\223\367,\306?E\345\323!?4\306?l\271=\205\1778\306?\037E3\325\3478\306?\352Ti\363N1\306?\000\026\277J\272=\306?l\251\235\020#L\306?=\364Yu\210E\306?}f2\344$I\306?\021it7\352I\306?\367\036\371F\036O\306?F\336\353\0041Y\306?\326\016\220y.]\306?bo\215\310\252Z\306?=\374yv\240^\306?\306\000\235\n7g\306?\031s\334\313\253j\306?\222ntc\264m\306?}8\374\371\254n\306?\241\030\306\316\365l\306?\314\216k{oW\306?3n|\203\265E\306?\316\212\357^\312M\306?\310b\306\324\220J\306?J\251\310D\361:\306?\354(dm\247;\306?\310S\177R\'?\306?\274%\304R\340A\306?\203\313\363x\0138\306?8\311\233k\2646\306?\016\334\310\017q@\306?-\017\014\377m?\306?u_\032\373\234?\306?\t\236\323\020{?\306?@\010\204zSA\306?]z@H2E\306?#&\340\213\272L\306?\264\220\302\355\267S\306?4\354\331n\340`\306?\034y\014\316ap\306?\223\034H\310T\202\306?\035\274\273=$\226\306?RC\014U\340\215\306?\242\016\327\334dc\306?Wv6\356\021M\306?\2014\233{\323*\306?\226p\377\311\223/\306?\270\024\324\023=@\306?\002\214\217\230\236E\306?\235\213\010\304\300:\306?o|\222\340\262/\306?4\345\330\2641:\306?\272\205\360`r@\306?\311\310\255\327a=\306?\270-\246\246\0308\306?9\372\300\327\3259\306?c\272\316\216m<\306?|\305\035\346\000>\306?\007\346\324\r\2258\306?\021L\332\371#1\306?$\374\210\350\242$\306?n\227\027\017\330\035\306?I\375\200\375\223\034\306?\354\361Y\326\261\025\306?^\325\214\036U\023\306?M\364\\S\336\026\306?\342\001\206a\227\023\306?\367/*X\314\020\306?\026`\272q\324\017\306?\341O\355\t\233\014\306?\224\00106^\016\306?X\355\222\037\216\001\306?q\202UF:\373\305?\201\031\216\022\264\374\305?R76\214\231\374\305?\332=l.\246\365\305?a\337([\037\364\305?UFL\036\211\366\305?]7\320<\263\366\305?Q&\320\210\033\365\305?x\346U\005\271\367\305?\002\333=P\331\366\305?\240\0051h\322\372\305?\260J\306\212J\005\306?\032\033\316\275\006\013\306?\003\226\262\305\233 \306?\331\272\336zp\036\306?\314\274\367e\240\032\306?\311\227\023^\311(\306?\316&Z\316\262\"\306?\301\363\210Ze)\306?\213\317b\376\021S\306?\304,#\021\364y\306?\325%n\013R\215\306?\343MS\013\362\241\306?\032\266\235\036*\271\306?\320n\241\351\364\325\306?\207v\210^\312\351\306?\310\275\000\310\367\357\306?\032d\210\037@\337\306?Nz0@\332\363\306?<\002\236\005\270\030\307?\331t\372\375?\'\307?\002\224Lo\3735\307?F\177\257\273U$\307?#\213\326\177\r\360\306?\330\2420\350\267\301\306?\n\033\376\320U\305\306?\233\020\267f\322\266\306?_\306\2649E\274\306?Ck\265\357\240\305\306?\024\001\261\031\236\346\306?\360vn\356p\372\306?lwr\3728\"\307?\207\272\306i\263*\307?\246\260\035Ou\017\307?\333\013F\321u\364\306?\345\356a\231\370\317\306?\261-\2261$\270\306?\215(\035G\324\215\306?K\272\354+\235|\306?\251\310\327T\314w\306?\220{\200\017\332\202\306?\354\005\343\003\342\205\306?O\366\224q\223^\306?\207\2702\333\']\306?\212\360,\3127^\306?I\003z\014Ob\306?\2140\255\234\251O\306?\305\303\3368\347/\306?0+\206>g1\306?\002\344\nCr_\306?o&\275\247&\214\306?\200?U\265?\270\306?\310f\242cb\316\306?\377\025C\203^\311\306?_\220\326\023\273\310\306?\025\207\214w\342\332\306?[\261W\t*\353\306?\235\212\005\322\206\002\307?\227\211\0302\373\025\307?\222\326@<\020.\307?\346\031\221\256\355;\307?\023\261\266\231rT\307?\252)\224HLW\307?qoo\230\027I\307?!\362\276s\355\340\306?6\032\225\333\303\214\306?A{7\016\243}\306?}6\354\243\305l\306?\333)\215\000\275\\\306?\025\343\265x\234U\306?XDT\256\336K\306?#\210-\034\214A\306?6\344yR!<\306?8&0B\035;\306?;\nOiv=\306?\03524\212$;\306?My\213\277\241;\306?\231\220A\264wB\306?e\277\n\312\026D\306?V\277\036\2106D\306?\261DD\2121K\306?\221`3\213\023I\306?#\306\366P^H\306?\300T\364\006\346H\306?\024\372\361{\301E\306?\037\000x\021\224E\306?\325\010D\"I]\306?\330\200;b\212x\306?\010\362\264HO\233\306?\355\355\255\200\366\256\306?lAWq\226\321\306?\312nW\311v\347\306?\217\247\030\371R\376\306?z\251\245\2472\006\307?y\303U\034\t\037\307?\\oR\323Y&\307?l\"\3133C+\307?t\213\216\036\236)\307?\357\223\335\253\332\036\307?\004\232\024\216<\352\306?\t8\361\306c\265\306?\255dF\306\n\201\306?\014\226\231\273^f\306?\233J\270\360\271\\\306?HF\t%\214Y\306?\344)*ieE\306?$W+\277~[\307?\312\236]\356.8\307?\253\026\374)\2326\307?\210\341\215F\352/\307?)\256Z4\305%\307?\227Q\0017X&\307?\365\244\315\352} \307?\014\2076\344\305 \307?\353\206z\2654\033\307?\307\264\"\251\006\023\307?;\350m\307/\027\307?\341.:\332\352\022\307?f\263\004\310\271\025\307?\r\245z[~\032\307?>Hz\021\240x\306?\352>\252\250\224s\306?qi\365\010Gf\306?Z[\200\317rM\306?F\344Q\260\032Y\306?\024\204(\350\301`\306?\327\026\243PD6\306?\213 u\013\3024\306?\271v-\027\255@\306?\376\361.|\034D\306?\327&\3676[K\306??\230\270\256\310J\306?>\'\200\014dP\306?\3277\273\253\332R\306?\260\301\312\272\342V\306?N\322\265\\!_\306?\023\374\234\246\302d\306?+y:,\024v\306?!\246\332-\035\201\306?F\331\021=\337\205\306?X\362\263\274k\203\306?\t.\306(\036\203\306?\235\010@\256\235\200\306?\263\031E\256R|\306?\221\236\277\\\315r\306?@\035\333\247\355c\306?\213\240\374\240\330Q\306?\241\002\256\313\363W\306?&\'\272\376\302J\306?\003B \324\233J\306?SY\254\222\334b\306?5\326\361\244\364h\306?W\006hj\370g\306?X+\335\324ue\306?f\334\241ONn\306?\264\0365[\266l\306?%-P\343\302g\306?#\373lY\310`\306?\'P;1(i\306?\354\254\234\0213h\306?\303\026g~\310j\306?b\220c\007oq\306?\027\003\315\342#t\306?\022m\246\306tv\306?\231\023wf\311v\306?\376+:xw{\306?|\374\265\'\016\201\306?\364\036KE\201\203\306?\223\207\324\240\247\202\306?~A\262P\320\205\306?\354?!\361\341\210\306?\275iylk\216\306?@\225\366\255\246\220\306?\224h\265\377\202\226\306?A\355\236\331\001\231\306?hC\010\014\265\215\306?\212\027\205\t\025o\306?kP\202\236\320b\306?\323>\331q\034h\306?\355\036\311z\244`\306?\337\321\001tXT\306?\330\216\247\272\207Q\306?O\213\025\303B^\306?~2}\261\"c\306?\274\nr\025`_\306?\367M\374y\234g\306?L\001\\\325\001l\306?\343\271=\217\361k\306?)\023\373\'_`\306?\263\257\021\310\362\\\306?f\004\332qQZ\306?\320>\211\341\200\\\306?\255a\337~[X\306?\216RF\262\000S\306?x\261&\322\332M\306?.j\360\361\033<\306?\002\225\306o\3279\306?\266\351?\323a1\306?+4\236u~+\306?\316H6\267? \306?\346b\222\345\262\376\305?\2042\227\230\212\364\305?c\242H\304\202\345\305?@\205\375\200\002\315\305?\315\006EeV\276\305?x\220P\223\026\267\305?\342\025\024H\201\254\305?-8ei\005\230\305?\253\262WnU\221\305?\333\313\234\177\322\210\305?\206\202\306\n\206\214\305?\344Y\373\233M\220\305?\211\356\003\327\257\220\305?\352\246\004,\010\221\305?<\271\tk!\220\305?\177\017\003\002B\220\305?2\214\206O\344\220\305?\0028\261\030Y\230\305?\255\374\251&\305\235\305?S\274\3500\001\255\305?\255\002\255\247\363\264\305?\346\273\301;\354\312\305?^\357\224\224\017\317\305?\330x\227(\316\323\305?\020P\206O\337\327\305?.\242\305\320\354\345\305?\352\267\303\347\315\357\305?\206jMj\235\365\305?\013\327p\177\230\376\305?\347d\242;\232\000\306?\371I\260\226\r\373\305?,\271\"\342\372\370\305?"
      }
    }
  }
}
node {
  name: "tensors/component_1"
  op: "Const"
  device: "/device:CPU:0"
  attr {
    key: "_output_shapes"
    value {
      list {
        shape {
          dim {
            size: 3567
          }
        }
      }
    }
  }
  attr {
    key: "dtype"
    value {
      type: DT_DOUBLE
    }
  }
  attr {
    key: "value"
    value {
      tensor {
        dtype: DT_DOUBLE
        tensor_shape {
          dim {
            size: 3567
          }
        }
